{
  "version": "1.0",
  "truncation": null,
  "padding": null,
  "added_tokens": [
    {
      "id": 0,
      "content": "[UNK]",
      "single_word": false,
      "lstrip": false,
      "rstrip": false,
      "normalized": false,
      "special": true
    },
    {
      "id": 1,
      "content": "[PAD]",
      "single_word": false,
      "lstrip": false,
      "rstrip": false,
      "normalized": false,
      "special": true
    },
    {
      "id": 2,
      "content": "[SOS]",
      "single_word": false,
      "lstrip": false,
      "rstrip": false,
      "normalized": false,
      "special": true
    },
    {
      "id": 3,
      "content": "[EOS]",
      "single_word": false,
      "lstrip": false,
      "rstrip": false,
      "normalized": false,
      "special": true
    }
  ],
  "normalizer": null,
  "pre_tokenizer": {
    "type": "ByteLevel",
    "add_prefix_space": false,
    "trim_offsets": true,
    "use_regex": true
  },
  "post_processor": null,
  "decoder": {
    "type": "ByteLevel",
    "add_prefix_space": true,
    "trim_offsets": true,
    "use_regex": true
  },
  "model": {
    "type": "BPE",
    "dropout": null,
    "unk_token": "[UNK]",
    "continuing_subword_prefix": null,
    "end_of_word_suffix": null,
    "fuse_unk": false,
    "byte_fallback": false,
    "ignore_merges": false,
    "vocab": {
      "[UNK]": 0,
      "[PAD]": 1,
      "[SOS]": 2,
      "[EOS]": 3,
      "!": 4,
      "\"": 5,
      "#": 6,
      "$": 7,
      "%": 8,
      "&": 9,
      "'": 10,
      "(": 11,
      ")": 12,
      "*": 13,
      "+": 14,
      ",": 15,
      "-": 16,
      ".": 17,
      "/": 18,
      "0": 19,
      "1": 20,
      "2": 21,
      "3": 22,
      "4": 23,
      "5": 24,
      "6": 25,
      "7": 26,
      "8": 27,
      "9": 28,
      ":": 29,
      ";": 30,
      "<": 31,
      "=": 32,
      ">": 33,
      "?": 34,
      "@": 35,
      "A": 36,
      "B": 37,
      "C": 38,
      "D": 39,
      "E": 40,
      "F": 41,
      "G": 42,
      "H": 43,
      "I": 44,
      "J": 45,
      "K": 46,
      "L": 47,
      "M": 48,
      "N": 49,
      "O": 50,
      "P": 51,
      "Q": 52,
      "R": 53,
      "S": 54,
      "T": 55,
      "U": 56,
      "V": 57,
      "W": 58,
      "X": 59,
      "Y": 60,
      "Z": 61,
      "[": 62,
      "\\": 63,
      "]": 64,
      "^": 65,
      "_": 66,
      "a": 67,
      "b": 68,
      "c": 69,
      "d": 70,
      "e": 71,
      "f": 72,
      "g": 73,
      "h": 74,
      "i": 75,
      "j": 76,
      "k": 77,
      "l": 78,
      "m": 79,
      "n": 80,
      "o": 81,
      "p": 82,
      "q": 83,
      "r": 84,
      "s": 85,
      "t": 86,
      "u": 87,
      "v": 88,
      "w": 89,
      "x": 90,
      "y": 91,
      "z": 92,
      "{": 93,
      "|": 94,
      "}": 95,
      "~": 96,
      "¡": 97,
      "¢": 98,
      "£": 99,
      "¤": 100,
      "¥": 101,
      "¦": 102,
      "§": 103,
      "¨": 104,
      "©": 105,
      "ª": 106,
      "«": 107,
      "¬": 108,
      "®": 109,
      "¯": 110,
      "°": 111,
      "±": 112,
      "²": 113,
      "³": 114,
      "´": 115,
      "µ": 116,
      "¶": 117,
      "·": 118,
      "¸": 119,
      "¹": 120,
      "º": 121,
      "»": 122,
      "¼": 123,
      "½": 124,
      "¾": 125,
      "¿": 126,
      "Â": 127,
      "Ã": 128,
      "Ä": 129,
      "Å": 130,
      "Ç": 131,
      "È": 132,
      "É": 133,
      "Ê": 134,
      "Ë": 135,
      "Ì": 136,
      "Î": 137,
      "Ï": 138,
      "Ð": 139,
      "Ñ": 140,
      "Ò": 141,
      "Ó": 142,
      "×": 143,
      "Ø": 144,
      "Ù": 145,
      "Ú": 146,
      "Û": 147,
      "à": 148,
      "á": 149,
      "â": 150,
      "ä": 151,
      "å": 152,
      "æ": 153,
      "ç": 154,
      "è": 155,
      "é": 156,
      "ê": 157,
      "ë": 158,
      "ì": 159,
      "ï": 160,
      "Ġ": 161,
      "Ģ": 162,
      "ģ": 163,
      "Ĥ": 164,
      "ĥ": 165,
      "Ħ": 166,
      "ħ": 167,
      "Ĩ": 168,
      "ĩ": 169,
      "Ī": 170,
      "ī": 171,
      "Ĭ": 172,
      "ĭ": 173,
      "Į": 174,
      "į": 175,
      "İ": 176,
      "ı": 177,
      "Ĳ": 178,
      "ĳ": 179,
      "Ĵ": 180,
      "ĵ": 181,
      "Ķ": 182,
      "ķ": 183,
      "ĸ": 184,
      "Ĺ": 185,
      "ĺ": 186,
      "Ļ": 187,
      "ļ": 188,
      "Ľ": 189,
      "ľ": 190,
      "Ŀ": 191,
      "ŀ": 192,
      "Ł": 193,
      "ł": 194,
      "Ń": 195,
      "Ġt": 196,
      "Ġa": 197,
      "in": 198,
      "he": 199,
      "on": 200,
      "re": 201,
      "Ġthe": 202,
      "er": 203,
      "Ġo": 204,
      "Ġc": 205,
      "Ġs": 206,
      "at": 207,
      "es": 208,
      "nd": 209,
      "al": 210,
      "ed": 211,
      "Ġf": 212,
      "en": 213,
      "Ġm": 214,
      "Ġof": 215,
      "Ġw": 216,
      "it": 217,
      "Ġb": 218,
      "ing": 219,
      "or": 220,
      "Ġp": 221,
      "is": 222,
      "Ġin": 223,
      "ar": 224,
      "ro": 225,
      "an": 226,
      "ion": 227,
      "Ġand": 228,
      "ic": 229,
      "Ġto": 230,
      "Ġd": 231,
      "as": 232,
      "el": 233,
      "ou": 234,
      "il": 235,
      "ct": 236,
      "Ġl": 237,
      "ent": 238,
      "Ġh": 239,
      "us": 240,
      "Ġre": 241,
      "ĠT": 242,
      "et": 243,
      "ol": 244,
      "om": 245,
      "Ġis": 246,
      "ur": 247,
      "Ġe": 248,
      "Ġth": 249,
      "ly": 250,
      "st": 251,
      "Ġcon": 252,
      "ĠI": 253,
      "le": 254,
      "ra": 255,
      "Ġfor": 256,
      "id": 257,
      "ation": 258,
      "Ġbe": 259,
      "ch": 260,
      "ce": 261,
      "Ġg": 262,
      "im": 263,
      "ir": 264,
      "Ġn": 265,
      "ĠA": 266,
      "ĠThe": 267,
      "te": 268,
      "Ġas": 269,
      "iv": 270,
      "Ġpro": 271,
      "ĠC": 272,
      "ow": 273,
      "ig": 274,
      "est": 275,
      "ĠS": 276,
      "am": 277,
      "ith": 278,
      "Ġ(": 279,
      "ot": 280,
      "ul": 281,
      "Ġst": 282,
      "od": 283,
      "Ġare": 284,
      "Ġus": 285,
      "ĠIn": 286,
      "Ġor": 287,
      "la": 288,
      "ut": 289,
      "Ġwith": 290,
      "Ġ1": 291,
      "Ġon": 292,
      "ad": 293,
      "Ġal": 294,
      "ell": 295,
      "her": 296,
      "ers": 297,
      "pe": 298,
      "out": 299,
      "Ġby": 300,
      "Ġab": 301,
      "os": 302,
      "ure": 303,
      "ore": 304,
      "Ġde": 305,
      "xt": 306,
      "Ġan": 307,
      "rom": 308,
      "ns": 309,
      "ess": 310,
      "ver": 311,
      "if": 312,
      "Ġwas": 313,
      "ve": 314,
      "Ġthat": 315,
      "ĠM": 316,
      "Ġme": 317,
      "ge": 318,
      "du": 319,
      "ter": 320,
      "Ġcom": 321,
      "um": 322,
      "ĠB": 323,
      "per": 324,
      "Ġit": 325,
      "Ġsu": 326,
      "Ġfrom": 327,
      "ial": 328,
      "ies": 329,
      "ab": 330,
      "qu": 331,
      "ist": 332,
      "all": 333,
      "Ġwh": 334,
      "un": 335,
      "op": 336,
      "ment": 337,
      "Qu": 338,
      "Ġma": 339,
      "wer": 340,
      "Ġabout": 341,
      "estion": 342,
      "ere": 343,
      "th": 344,
      "ate": 345,
      "Ans": 346,
      "Question": 347,
      "Answer": 348,
      "ĠP": 349,
      "ction": 350,
      "ater": 351,
      "ill": 352,
      "Ġat": 353,
      "ical": 354,
      "ĠH": 355,
      "text": 356,
      "se": 357,
      "ĠF": 358,
      "and": 359,
      "ĠE": 360,
      "Ġcontext": 361,
      "iron": 362,
      "res": 363,
      "ain": 364,
      "Ġtell": 365,
      "Ġex": 366,
      "ated": 367,
      "ĠW": 368,
      "ac": 369,
      "ity": 370,
      "ant": 371,
      "00": 372,
      "ich": 373,
      "Ġv": 374,
      "Ġused": 375,
      "Ġmet": 376,
      "Ġk": 377,
      "igh": 378,
      "rou": 379,
      "Ġch": 380,
      "ast": 381,
      "oc": 382,
      "Ġsh": 383,
      "ood": 384,
      "Ġ2": 385,
      "ry": 386,
      "ĠD": 387,
      "Ġr": 388,
      "Ġcan": 389,
      "Ġwhich": 390,
      "ort": 391,
      "Ġmin": 392,
      "Ġse": 393,
      "pp": 394,
      "Ġprodu": 395,
      "ust": 396,
      "ld": 397,
      "ite": 398,
      "cess": 399,
      "ive": 400,
      "art": 401,
      "ire": 402,
      "Ġha": 403,
      "Ġiron": 404,
      "gh": 405,
      "ĠN": 406,
      "Ġinc": 407,
      "Ġhe": 408,
      "ĠR": 409,
      "ard": 410,
      "ud": 411,
      "nt": 412,
      "ther": 413,
      "ect": 414,
      "em": 415,
      "ay": 416,
      "Ġco": 417,
      "ib": 418,
      "iz": 419,
      "ine": 420,
      "og": 421,
      "Ġcomp": 422,
      "ĠG": 423,
      "Ġwere": 424,
      "ru": 425,
      "ide": 426,
      "ip": 427,
      "ĠL": 428,
      "Ġen": 429,
      "Ġle": 430,
      "Ġcont": 431,
      "Ġhave": 432,
      "ap": 433,
      "ia": 434,
      "ĠO": 435,
      "so": 436,
      "ting": 437,
      "Ġ\"": 438,
      "ally": 439,
      "Ġ19": 440,
      "Ġres": 441,
      "urn": 442,
      "ke": 443,
      "ous": 444,
      "ition": 445,
      "act": 446,
      "Ġu": 447,
      "our": 448,
      "âĢ": 449,
      "Ġwhe": 450,
      "ace": 451,
      "Ġsm": 452,
      "Ġne": 453,
      "red": 454,
      "Ġcar": 455,
      "Ġint": 456,
      "Ġform": 457,
      "king": 458,
      "Ġalso": 459,
      "ong": 460,
      "co": 461,
      "Ġnot": 462,
      "Ġsuch": 463,
      "ations": 464,
      "imp": 465,
      "ome": 466,
      "able": 467,
      "Ġprocess": 468,
      "Ġar": 469,
      "ĠU": 470,
      "lo": 471,
      "ced": 472,
      "Ġwor": 473,
      "Ġman": 474,
      "ff": 475,
      "ost": 476,
      "Ġad": 477,
      "Ġro": 478,
      "ks": 479,
      "Ġother": 480,
      "'s": 481,
      "ĠTh": 482,
      "ult": 483,
      "one": 484,
      "ely": 485,
      "pec": 486,
      "orest": 487,
      "ie": 488,
      "Ġpl": 489,
      "ight": 490,
      "ber": 491,
      "ran": 492,
      "low": 493,
      "Ġcomm": 494,
      "av": 495,
      "ary": 496,
      "ound": 497,
      "als": 498,
      "Ġhas": 499,
      "Ġste": 500,
      "ign": 501,
      "aterial": 502,
      "Ġac": 503,
      "Ġits": 504,
      "Ġmore": 505,
      "ass": 506,
      "Ġbeen": 507,
      "amp": 508,
      "Ġmaterial": 509,
      "Ġimp": 510,
      "ric": 511,
      "age": 512,
      "Ġincl": 513,
      "ens": 514,
      "Ġbut": 515,
      "ian": 516,
      "vel": 517,
      "Ġinto": 518,
      "ft": 519,
      "Ġthis": 520,
      "ree": 521,
      "Ġpart": 522,
      "),": 523,
      "Ġfurn": 524,
      "Ġper": 525,
      "Ġuse": 526,
      "ates": 527,
      "Ġte": 528,
      "Ġkn": 529,
      "Ġun": 530,
      "Ġpre": 531,
      "old": 532,
      "ord": 533,
      "Ġso": 534,
      "ces": 535,
      "lay": 536,
      "Ġy": 537,
      "ue": 538,
      "rough": 539,
      "olog": 540,
      "own": 541,
      "Ġwood": 542,
      "ature": 543,
      "ĠIt": 544,
      "Ġinclud": 545,
      "bon": 546,
      "Ġtheir": 547,
      "ish": 548,
      "ould": 549,
      "les": 550,
      "Ġsp": 551,
      "int": 552,
      "ear": 553,
      "Ġind": 554,
      "Ġsur": 555,
      "Ġmay": 556,
      "Ġtra": 557,
      "Ġdis": 558,
      "ress": 559,
      "round": 560,
      ").": 561,
      "Ġthan": 562,
      "ĠK": 563,
      "ance": 564,
      "ating": 565,
      "ĠThis": 566,
      "Ġty": 567,
      "Ġchar": 568,
      "Ġspec": 569,
      "Ġra": 570,
      "âĢĵ": 571,
      "ount": 572,
      "Ġel": 573,
      "ag": 574,
      "ten": 575,
      "mer": 576,
      "pt": 577,
      "pos": 578,
      "Ġsteel": 579,
      "orm": 580,
      "ile": 581,
      "Ġtim": 582,
      "Ġforest": 583,
      "ied": 584,
      "Ġtool": 585,
      "ĠCh": 586,
      "dition": 587,
      "ak": 588,
      "Ġwater": 589,
      "ade": 590,
      "ĠJ": 591,
      "ros": 592,
      "Ġapp": 593,
      "Ġrem": 594,
      "Ġdes": 595,
      "Ġlar": 596,
      "Ġ20": 597,
      "Ġhigh": 598,
      "ase": 599,
      "ific": 600,
      "hed": 601,
      "ph": 602,
      "Ġox": 603,
      "Ġcent": 604,
      "iff": 605,
      "ame": 606,
      "Ġbec": 607,
      "Ġcarbon": 608,
      "Ġcl": 609,
      "Ġcons": 610,
      "Ġthey": 611,
      "uring": 612,
      "aus": 613,
      "ind": 614,
      "Ġone": 615,
      "ents": 616,
      "Ġfir": 617,
      "row": 618,
      "Ġmost": 619,
      "ved": 620,
      "chn": 621,
      "ium": 622,
      "ract": 623,
      "arly": 624,
      "ence": 625,
      "Ġfl": 626,
      "ions": 627,
      "coal": 628,
      "Ġmetal": 629,
      "Ġqu": 630,
      "Ġfound": 631,
      "ough": 632,
      "Ġtw": 633,
      "nder": 634,
      "con": 635,
      "ep": 636,
      "any": 637,
      "Ġev": 638,
      "Ġag": 639,
      "Ġsome": 640,
      "ail": 641,
      "Ġdiff": 642,
      "Ġout": 643,
      "Ġtre": 644,
      "ub": 645,
      "Ġreg": 646,
      "ically": 647,
      "ory": 648,
      "iqu": 649,
      "Ġmade": 650,
      "are": 651,
      "we": 652,
      "ons": 653,
      "Ġredu": 654,
      "Ġgen": 655,
      "Ġ3": 656,
      "ities": 657,
      "Ġmining": 658,
      "Ġoften": 659,
      "Ġup": 660,
      "ern": 661,
      "ild": 662,
      "Ġpr": 663,
      "Ġtechn": 664,
      "erm": 665,
      "ach": 666,
      "ors": 667,
      "ick": 668,
      "Ġext": 669,
      "Ġref": 670,
      "Ġtem": 671,
      "Ġwhen": 672,
      "Ġsc": 673,
      "ĠSt": 674,
      "Ġbet": 675,
      "ments": 676,
      "Ġfurnace": 677,
      "Ġgra": 678,
      "ruct": 679,
      "velop": 680,
      "ys": 681,
      "ient": 682,
      "opper": 683,
      "Ġcol": 684,
      "Ġover": 685,
      "Ġj": 686,
      "ari": 687,
      "Ġwhere": 688,
      "ining": 689,
      "ited": 690,
      "Ġ18": 691,
      "ck": 692,
      "ang": 693,
      "ually": 694,
      "Ġexp": 695,
      "Ġrep": 696,
      "very": 697,
      "lic": 698,
      "Ġeff": 699,
      "Ġclay": 700,
      "Ġhad": 701,
      "hod": 702,
      "Ġthrough": 703,
      "ron": 704,
      "its": 705,
      "ury": 706,
      "perature": 707,
      "ose": 708,
      "Ġsmel": 709,
      "Ġunder": 710,
      "Ġdevelop": 711,
      "ng": 712,
      "ack": 713,
      "ĠV": 714,
      "Ġwork": 715,
      "Ġtyp": 716,
      "Ġtwo": 717,
      "Ġoper": 718,
      "ark": 719,
      "fter": 720,
      "000": 721,
      "cc": 722,
      "Ġwe": 723,
      "ice": 724,
      "ings": 725,
      "ural": 726,
      "Ġbu": 727,
      "ased": 728,
      "ility": 729,
      "Ġproduction": 730,
      "ever": 731,
      "Ġrec": 732,
      "Ġthese": 733,
      "Ġsmall": 734,
      "Ġfe": 735,
      "tern": 736,
      "Ġact": 737,
      "Ġloc": 738,
      "gen": 739,
      "de": 740,
      "rit": 741,
      "Ġcommon": 742,
      "gy": 743,
      "ĠWh": 744,
      "Ġbla": 745,
      "oth": 746,
      "Ġdec": 747,
      "Ġtemperature": 748,
      "Ġam": 749,
      "Ġcharcoal": 750,
      "ove": 751,
      "Ġyear": 752,
      "gan": 753,
      "Ġsy": 754,
      "aw": 755,
      "ween": 756,
      "Ġob": 757,
      "Ġcall": 758,
      "Ġplant": 759,
      "ne": 760,
      "ustr": 761,
      "Ġfirst": 762,
      "Ġbl": 763,
      "ular": 764,
      "Ġcor": 765,
      "Ġmethod": 766,
      "ted": 767,
      "ps": 768,
      "form": 769,
      "Ġlow": 770,
      "Ġsha": 771,
      "ĠAl": 772,
      "rans": 773,
      "Ġbetween": 774,
      "Ġthere": 775,
      "Ġsub": 776,
      "Ġconc": 777,
      "Ġincre": 778,
      "Ġlead": 779,
      "Ġpol": 780,
      "Ġtools": 781,
      "Ġknown": 782,
      "li": 783,
      "Ġcopper": 784,
      "Ġhand": 785,
      "Ġvari": 786,
      "Ġdist": 787,
      "ause": 788,
      "Ġonly": 789,
      "ational": 790,
      "Ġmany": 791,
      "hes": 792,
      "ĠAs": 793,
      "land": 794,
      "Ġcast": 795,
      "Ġsw": 796,
      "Ġsurf": 797,
      "ides": 798,
      "owever": 799,
      "Ġ4": 800,
      "Ġgener": 801,
      "Ġore": 802,
      "Ġhard": 803,
      "rib": 804,
      "Ġinv": 805,
      "Ġduring": 806,
      "Ġusing": 807,
      "ible": 808,
      "ized": 809,
      "Ġsil": 810,
      "Ġrequ": 811,
      "Ġtrans": 812,
      "viron": 813,
      "ins": 814,
      "Ġsol": 815,
      "ject": 816,
      "Ġthen": 817,
      "ined": 818,
      "Ġfire": 819,
      "Ġlong": 820,
      "ines": 821,
      "ans": 822,
      "Ġmill": 823,
      "Ġdr": 824,
      "oss": 825,
      "eld": 826,
      "Ġcentury": 827,
      "Ġcre": 828,
      "io": 829,
      "Ġlarge": 830,
      "Ġthem": 831,
      "ov": 832,
      "Ġpot": 833,
      "ĠFor": 834,
      "ĠCom": 835,
      "Ġtime": 836,
      "Ġall": 837,
      "Â°": 838,
      "Ġconst": 839,
      "Ġmod": 840,
      "Ġwell": 841,
      "Ġpartic": 842,
      "ures": 843,
      "lag": 844,
      "Ġass": 845,
      "ife": 846,
      "hem": 847,
      "Ġgre": 848,
      "aces": 849,
      "Ġocc": 850,
      "ange": 851,
      "stem": 852,
      "ĠUn": 853,
      "Ġmaterials": 854,
      "uch": 855,
      "Ġsign": 856,
      "Ġoff": 857,
      "Ġprov": 858,
      "Ġminer": 859,
      "ram": 860,
      "Ġbeing": 861,
      "ĠThese": 862,
      "oint": 863,
      "iss": 864,
      "ĠAn": 865,
      "Ġrel": 866,
      "ative": 867,
      "ially": 868,
      "Ġincluding": 869,
      "cing": 870,
      "Ġph": 871,
      "wood": 872,
      "omet": 873,
      "ize": 874,
      "Ġelect": 875,
      "ases": 876,
      "erv": 877,
      "ale": 878,
      "Ġdiffere": 879,
      "Ġem": 880,
      "Ġenviron": 881,
      "ution": 882,
      "ered": 883,
      "led": 884,
      "ology": 885,
      "Ġair": 886,
      "Ġpe": 887,
      "Ġno": 888,
      "Ġexamp": 889,
      "tain": 890,
      "Ġ5": 891,
      "ok": 892,
      "Ġpres": 893,
      "ets": 894,
      "yd": 895,
      "Ġcut": 896,
      "Ġdo": 897,
      "uro": 898,
      "Ġwill": 899,
      "Ġsurface": 900,
      "Ġfin": 901,
      "pend": 902,
      "ling": 903,
      "Ġacc": 904,
      "Ġafter": 905,
      "Ġstr": 906,
      "pen": 907,
      "Ġusually": 908,
      "Ġproduct": 909,
      "Ġcalled": 910,
      "Ġvery": 911,
      "Ġli": 912,
      "Ġstone": 913,
      "Ġsupp": 914,
      "way": 915,
      "Ġpla": 916,
      "ives": 917,
      "hen": 918,
      "umber": 919,
      "fore": 920,
      "Ġsword": 921,
      "Ġspecies": 922,
      "Ġlim": 923,
      "Ġwould": 924,
      "ired": 925,
      "ily": 926,
      "Ġcontain": 927,
      "Ġproduced": 928,
      "ryst": 929,
      "Ġkil": 930,
      "Ġyears": 931,
      "urope": 932,
      "ĠWhat": 933,
      "Ġcap": 934,
      "Ġax": 935,
      "Ġdesign": 936,
      "ual": 937,
      "ĠEurope": 938,
      "ism": 939,
      "Ġwhile": 940,
      "let": 941,
      "arm": 942,
      "Ġallow": 943,
      "Ġbo": 944,
      "meric": 945,
      "ts": 946,
      "Ġ6": 947,
      "ival": 948,
      "Ġeffect": 949,
      "wn": 950,
      "ively": 951,
      "Ġresult": 952,
      "ĠHowever": 953,
      "ather": 954,
      "Ġless": 955,
      "wor": 956,
      "Ġhun": 957,
      "tle": 958,
      "Ġinst": 959,
      "ars": 960,
      "Ġstruct": 961,
      "ĠDe": 962,
      "ix": 963,
      "Ġboth": 964,
      "ists": 965,
      "ards": 966,
      "Ġenvironment": 967,
      "ene": 968,
      "Ġallo": 969,
      "oci": 970,
      "Ġearly": 971,
      "ished": 972,
      "inc": 973,
      "ery": 974,
      "ĠAmeric": 975,
      "ĠÂ°": 976,
      "Ġaround": 977,
      "ulf": 978,
      "Ġsystem": 979,
      "Ġdifferent": 980,
      "Ġ201": 981,
      "ae": 982,
      "Ġdef": 983,
      "ock": 984,
      "ield": 985,
      "ness": 986,
      "ĠâĢĵ": 987,
      "Ġimport": 988,
      "fact": 989,
      "ince": 990,
      "Ġmetals": 991,
      "Ġactiv": 992,
      "ise": 993,
      "rol": 994,
      "Ġinclude": 995,
      "Ġoccur": 996,
      "ics": 997,
      "els": 998,
      "Ġarea": 999,
      "iod": 1000,
      "Ġdire": 1001,
      "mb": 1002,
      "vent": 1003,
      "rosion": 1004,
      "Ġpur": 1005,
      "und": 1006,
      "Ġed": 1007,
      "Ġart": 1008,
      "Ġremain": 1009,
      "Ġshe": 1010,
      "ites": 1011,
      "ollow": 1012,
      "ĠNor": 1013,
      "Ġdue": 1014,
      "Ġtrees": 1015,
      "entr": 1016,
      "Ġhis": 1017,
      "Ġstud": 1018,
      "ological": 1019,
      "Ġtechniqu": 1020,
      "Ġinter": 1021,
      "Ġend": 1022,
      "imil": 1023,
      "rop": 1024,
      "ĠAr": 1025,
      "Ġexample": 1026,
      "ĠInd": 1027,
      "cy": 1028,
      "Ġgrow": 1029,
      "ĠThey": 1030,
      "Ġav": 1031,
      "Ġcould": 1032,
      "ĠNe": 1033,
      "Ġneed": 1034,
      "ross": 1035,
      "Ġz": 1036,
      "Ġmon": 1037,
      "Ġmain": 1038,
      "Ġbuild": 1039,
      "ging": 1040,
      "Ġnew": 1041,
      "rodu": 1042,
      "Ġgo": 1043,
      "allur": 1044,
      "Ġprocesses": 1045,
      "ath": 1046,
      "Ġbecause": 1047,
      "Ġwho": 1048,
      "{\\": 1049,
      "Ġequ": 1050,
      "Ġdepos": 1051,
      "hemical": 1052,
      "ruction": 1053,
      "50": 1054,
      "Ġslag": 1055,
      "Ġsmelting": 1056,
      "ole": 1057,
      "Ġdet": 1058,
      "Ġtype": 1059,
      "Ġblast": 1060,
      "ott": 1061,
      "ful": 1062,
      "ĠThere": 1063,
      "outh": 1064,
      "gn": 1065,
      "ze": 1066,
      "pert": 1067,
      "Ġlarg": 1068,
      "Ġet": 1069,
      "ilt": 1070,
      "Ġ200": 1071,
      "Ġheat": 1072,
      "Ġnat": 1073,
      "ble": 1074,
      "Ġgas": 1075,
      "igin": 1076,
      "Ġstre": 1077,
      "Ġmake": 1078,
      "Ġproduce": 1079,
      "ĠUnited": 1080,
      "af": 1081,
      "ety": 1082,
      "Ġshaft": 1083,
      "other": 1084,
      "Ġtree": 1085,
      "Ġsite": 1086,
      "ufact": 1087,
      "ustry": 1088,
      "ygen": 1089,
      "cks": 1090,
      "ning": 1091,
      "ĠRe": 1092,
      "ization": 1093,
      "SA": 1094,
      "Ġcontin": 1095,
      "Ġany": 1096,
      "Ġ9": 1097,
      "Ġadd": 1098,
      "ges": 1099,
      "Ġest": 1100,
      "Ġsulf": 1101,
      "imes": 1102,
      "Ġbel": 1103,
      "vival": 1104,
      "Ġopen": 1105,
      "chan": 1106,
      "Ġcer": 1107,
      "Ġcount": 1108,
      "Ġfollow": 1109,
      "Ġpow": 1110,
      "par": 1111,
      "ond": 1112,
      "ves": 1113,
      "Ġmuch": 1114,
      "uel": 1115,
      "Ġcomb": 1116,
      "Ġatt": 1117,
      "Ġsoil": 1118,
      "Ġland": 1119,
      "Ġlike": 1120,
      "Ġsl": 1121,
      "Ġpract": 1122,
      "Ġpop": 1123,
      "umin": 1124,
      "Ġcommun": 1125,
      "Ġconsid": 1126,
      "Ġhum": 1127,
      "Ġindustry": 1128,
      "ones": 1129,
      "ivers": 1130,
      "Ġmanufact": 1131,
      "ctions": 1132,
      "Ġoxygen": 1133,
      "ged": 1134,
      "Ġstill": 1135,
      "ified": 1136,
      "Ġfurnaces": 1137,
      "Ġtradition": 1138,
      "Ġterm": 1139,
      "Ġele": 1140,
      "Ġprote": 1141,
      "Ġorgan": 1142,
      "imilar": 1143,
      "Ġarch": 1144,
      "Ġhyd": 1145,
      "Ġcompany": 1146,
      "ob": 1147,
      "ĠBC": 1148,
      "Ġback": 1149,
      "Ġconcentr": 1150,
      "ake": 1151,
      "ering": 1152,
      "Ġpoint": 1153,
      "cted": 1154,
      "ident": 1155,
      "Ġeng": 1156,
      "Ġperiod": 1157,
      "til": 1158,
      "Ġsame": 1159,
      "Ġfla": 1160,
      "Ġthree": 1161,
      "ĠHe": 1162,
      "Ġsk": 1163,
      "Ġlay": 1164,
      "conom": 1165,
      "Ġmillion": 1166,
      "han": 1167,
      "Ġfer": 1168,
      "Ġtr": 1169,
      "Ġmic": 1170,
      "roly": 1171,
      "Ġear": 1172,
      "Ġgr": 1173,
      "Ġorigin": 1174,
      "Ġdeveloped": 1175,
      "Ġap": 1176,
      "Ġmechan": 1177,
      "Ġham": 1178,
      "ĠSome": 1179,
      "Ġcontrol": 1180,
      "Ġworld": 1181,
      "mon": 1182,
      "Ġ0": 1183,
      "Ġinte": 1184,
      "ability": 1185,
      "Ġnear": 1186,
      "ĠCon": 1187,
      "acter": 1188,
      "get": 1189,
      "ious": 1190,
      "nce": 1191,
      "Ġret": 1192,
      "ters": 1193,
      "Ġpress": 1194,
      "ĠCor": 1195,
      "Ġstand": 1196,
      "though": 1197,
      "cond": 1198,
      "ri": 1199,
      "}}": 1200,
      "Ġsize": 1201,
      "ĠLe": 1202,
      "gg": 1203,
      "ving": 1204,
      "ash": 1205,
      "Ġcondition": 1206,
      "Ġground": 1207,
      "osition": 1208,
      "Ġmagn": 1209,
      "ometimes": 1210,
      "hip": 1211,
      "Ġown": 1212,
      "Ġdown": 1213,
      "cept": 1214,
      "ĠAustr": 1215,
      "ĠEng": 1216,
      "Ġset": 1217,
      "Ġinf": 1218,
      "arch": 1219,
      "Ġanim": 1220,
      "istory": 1221,
      "Ġins": 1222,
      "raft": 1223,
      "âĢĶ": 1224,
      "Ġnatural": 1225,
      "ma": 1226,
      "Ġbr": 1227,
      "lex": 1228,
      "rac": 1229,
      "Ġimportant": 1230,
      "Ġsour": 1231,
      "Ġmine": 1232,
      "20": 1233,
      "Ġtypically": 1234,
      "che": 1235,
      "der": 1236,
      "Ġchemical": 1237,
      "Ġent": 1238,
      "Ġif": 1239,
      "Ġhig": 1240,
      "ately": 1241,
      "Ġwithin": 1242,
      "Ġmodern": 1243,
      "Ġcur": 1244,
      "Ġeas": 1245,
      "Ġdrill": 1246,
      "Ġpropert": 1247,
      "Ġprim": 1248,
      "des": 1249,
      "ergy": 1250,
      "Ġsever": 1251,
      "ared": 1252,
      "oking": 1253,
      "Ġlater": 1254,
      "Ġappro": 1255,
      "Ġ7": 1256,
      "Ġ8": 1257,
      "Ġsimilar": 1258,
      "Ġfood": 1259,
      "ĠAt": 1260,
      "Ġcoal": 1261,
      "Ġapplic": 1262,
      "Ġpeop": 1263,
      "\".": 1264,
      "Ġcamp": 1265,
      "Ġpie": 1266,
      "Ġtypes": 1267,
      "Ġsignific": 1268,
      "vered": 1269,
      "Ġlocal": 1270,
      "rystall": 1271,
      "Ġdep": 1272,
      "Ġcle": 1273,
      "Ġposs": 1274,
      "Ġmaking": 1275,
      "Ġadv": 1276,
      "Ġseveral": 1277,
      "Ġcorrosion": 1278,
      "Ġsolid": 1279,
      "ĠComp": 1280,
      "ior": 1281,
      "kes": 1282,
      "Ġfact": 1283,
      "ential": 1284,
      "raction": 1285,
      "Ġbefore": 1286,
      "iment": 1287,
      "Ġcost": 1288,
      "ĠStates": 1289,
      "Ġ'": 1290,
      "Ġcaus": 1291,
      "Ġexper": 1292,
      "Ġvarious": 1293,
      "ox": 1294,
      "urther": 1295,
      "Ġgold": 1296,
      "Ġlevel": 1297,
      "ishing": 1298,
      "Ġconstruction": 1299,
      "osed": 1300,
      "Ġcasting": 1301,
      "Ã©": 1302,
      "Ġmar": 1303,
      "ithic": 1304,
      "Ġcult": 1305,
      "Ġbas": 1306,
      "ised": 1307,
      "rought": 1308,
      "up": 1309,
      "of": 1310,
      "ute": 1311,
      "yl": 1312,
      "Ġold": 1313,
      "Ġsince": 1314,
      "Ġfuel": 1315,
      "Ġeconom": 1316,
      "Ġgrou": 1317,
      "ĠAf": 1318,
      "Ġareas": 1319,
      "Ġuntil": 1320,
      "Ġmethods": 1321,
      "Ġinvol": 1322,
      "Ġhunting": 1323,
      "ĠAustral": 1324,
      "ug": 1325,
      "Ġway": 1326,
      "Ġthose": 1327,
      "vern": 1328,
      "ries": 1329,
      "Ġmed": 1330,
      "Ġpat": 1331,
      "Ġnumber": 1332,
      "istor": 1333,
      "Ġdirect": 1334,
      "erc": 1335,
      "Ġlit": 1336,
      "Ġprec": 1337,
      "ina": 1338,
      "ently": 1339,
      "ickel": 1340,
      "Ġmust": 1341,
      "ĠSw": 1342,
      "Ġproducts": 1343,
      "read": 1344,
      "Ġappe": 1345,
      "Ġsignificant": 1346,
      "reat": 1347,
      "Ġeven": 1348,
      "Ġblade": 1349,
      "ave": 1350,
      "Ġsaw": 1351,
      "Ġpig": 1352,
      "Ġrese": 1353,
      "allurgy": 1354,
      "Ġes": 1355,
      "Ġenergy": 1356,
      "Ġcontent": 1357,
      "Ġstreng": 1358,
      "lass": 1359,
      "Ġsometimes": 1360,
      "Ġfun": 1361,
      "Ġmel": 1362,
      "ush": 1363,
      "Ġeach": 1364,
      "ows": 1365,
      "formation": 1366,
      "port": 1367,
      "tem": 1368,
      "Ġassoci": 1369,
      "Ġconditions": 1370,
      "oid": 1371,
      "yc": 1372,
      "ots": 1373,
      "ants": 1374,
      "Ġcool": 1375,
      "ĠChar": 1376,
      "xim": 1377,
      "amb": 1378,
      "Ġ10": 1379,
      "Ġke": 1380,
      "ĠAfric": 1381,
      "eng": 1382,
      "iven": 1383,
      "Ġoxide": 1384,
      "Ġreport": 1385,
      "uc": 1386,
      "rent": 1387,
      "tery": 1388,
      "Ġminerals": 1389,
      "Ġsupport": 1390,
      "Ġbod": 1391,
      "ĠIron": 1392,
      "Ġmineral": 1393,
      "man": 1394,
      "ived": 1395,
      "Ġtreat": 1396,
      "Ġamount": 1397,
      "Ġavail": 1398,
      "Ġpeople": 1399,
      "cient": 1400,
      "mel": 1401,
      "Ġhammer": 1402,
      "ires": 1403,
      "nam": 1404,
      "Ġdepend": 1405,
      "ĠWor": 1406,
      "Ġimpro": 1407,
      "Ġagain": 1408,
      "Ġlo": 1409,
      "Ġlight": 1410,
      "hern": 1411,
      "ither": 1412,
      "ilit": 1413,
      "iam": 1414,
      "ool": 1415,
      "Ġsand": 1416,
      "Ġalong": 1417,
      "Ġobject": 1418,
      "Ġenvironmental": 1419,
      "Ġproperties": 1420,
      "Ġval": 1421,
      "Ġgrain": 1422,
      "Ġcontinu": 1423,
      "me": 1424,
      "Ġrange": 1425,
      "Ġ199": 1426,
      "19": 1427,
      "ality": 1428,
      "Ġpub": 1429,
      "oun": 1430,
      "Ġreduction": 1431,
      "ĠNorth": 1432,
      "Ġmanufacture": 1433,
      "ren": 1434,
      "Ġ17": 1435,
      "fer": 1436,
      "Ġthough": 1437,
      "ĠPro": 1438,
      "Ġsecond": 1439,
      "Ġshape": 1440,
      "oration": 1441,
      "Ġdra": 1442,
      "ulation": 1443,
      "ĠBrit": 1444,
      "Ġregion": 1445,
      "Ġgenerally": 1446,
      "Ġarchae": 1447,
      "ring": 1448,
      "Ġred": 1449,
      "Ġhigher": 1450,
      "lect": 1451,
      "Ġindustr": 1452,
      "Ġnon": 1453,
      "Ġtemperatures": 1454,
      "ier": 1455,
      "ty": 1456,
      "Ġbro": 1457,
      "Ġtop": 1458,
      "ĠRes": 1459,
      "Ġforms": 1460,
      "sc": 1461,
      "uss": 1462,
      "ĠWhen": 1463,
      "Ġmines": 1464,
      "ification": 1465,
      "\",": 1466,
      "Ġ+": 1467,
      "elf": 1468,
      "Ġaddition": 1469,
      "Ġsoft": 1470,
      "Ġrequired": 1471,
      "jor": 1472,
      "idd": 1473,
      "Ġwithout": 1474,
      "Ġbecame": 1475,
      "Ġsilic": 1476,
      "Ġsilver": 1477,
      "Ġstructure": 1478,
      "asing": 1479,
      "Ġengine": 1480,
      "ec": 1481,
      "ĠCar": 1482,
      "Ġdevelopment": 1483,
      "Ġtechniques": 1484,
      "ĠZ": 1485,
      "Ġburn": 1486,
      "ict": 1487,
      "ils": 1488,
      "ided": 1489,
      "ĠCo": 1490,
      "Ġdeep": 1491,
      "Ġcommonly": 1492,
      "Ġstrength": 1493,
      "crib": 1494,
      "pent": 1495,
      "sis": 1496,
      "ven": 1497,
      "ĠY": 1498,
      "nded": 1499,
      "Ġalumin": 1500,
      "iquid": 1501,
      "gra": 1502,
      "Ġcour": 1503,
      "ese": 1504,
      "ices": 1505,
      "Ġgu": 1506,
      "Ġrock": 1507,
      "Ġspecial": 1508,
      "Ġcell": 1509,
      "iving": 1510,
      "ĠMet": 1511,
      "ffic": 1512,
      "Ġclass": 1513,
      "by": 1514,
      "ner": 1515,
      "ule": 1516,
      "vers": 1517,
      "Ġwaste": 1518,
      "ĠOther": 1519,
      "Ġresist": 1520,
      "Ġalloy": 1521,
      "air": 1522,
      "Ġbased": 1523,
      "iver": 1524,
      "ĠGerm": 1525,
      "Ġkiln": 1526,
      "ink": 1527,
      "Ġsites": 1528,
      "Ġfurther": 1529,
      "chre": 1530,
      "char": 1531,
      "Ġstra": 1532,
      "lished": 1533,
      "Ġmat": 1534,
      "Ġtimes": 1535,
      "Ġ202": 1536,
      "yle": 1537,
      "Ġwid": 1538,
      "Ġvol": 1539,
      "ĠUS": 1540,
      "Ġprovide": 1541,
      "pect": 1542,
      "idence": 1543,
      "Ġstate": 1544,
      "aper": 1545,
      "ches": 1546,
      "the": 1547,
      "tic": 1548,
      "Ġmark": 1549,
      "Ġpers": 1550,
      "ull": 1551,
      "Ġabove": 1552,
      "Ġlower": 1553,
      "Ġge": 1554,
      "Ġuses": 1555,
      "Ġpurpos": 1556,
      "iner": 1557,
      "alc": 1558,
      "Ġknife": 1559,
      "Ġforestry": 1560,
      "au": 1561,
      "ination": 1562,
      "Ġ15": 1563,
      "ĠForest": 1564,
      "Ġ198": 1565,
      "ages": 1566,
      "10": 1567,
      "Ġday": 1568,
      "rolysis": 1569,
      "lied": 1570,
      "Ġsimp": 1571,
      "Ġstart": 1572,
      "Ġ197": 1573,
      "..": 1574,
      "ris": 1575,
      "agement": 1576,
      "lage": 1577,
      "ration": 1578,
      "Ġpy": 1579,
      "Ġeither": 1580,
      "avy": 1581,
      "Ġtraining": 1582,
      "Ġser": 1583,
      "Ġflow": 1584,
      "Ġhot": 1585,
      "eter": 1586,
      "Ġthick": 1587,
      "Ġhel": 1588,
      "Ġforests": 1589,
      "Ġpresent": 1590,
      "ĠNew": 1591,
      "Ġavailable": 1592,
      "Ġstress": 1593,
      "Ġplants": 1594,
      "ĠAmerican": 1595,
      "ĠAfrica": 1596,
      "Ġliquid": 1597,
      "Ġtons": 1598,
      "Ġcharacter": 1599,
      "Ġedge": 1600,
      "Ġwall": 1601,
      "ird": 1602,
      "ĠOld": 1603,
      ".\"": 1604,
      "Ġbuilt": 1605,
      "gram": 1606,
      "ipp": 1607,
      "ann": 1608,
      "Ġrea": 1609,
      "Ġsugg": 1610,
      "Ġris": 1611,
      "Ġresour": 1612,
      "pecially": 1613,
      "Ġcutting": 1614,
      "Ġstrong": 1615,
      "to": 1616,
      "ues": 1617,
      "here": 1618,
      "Ġsing": 1619,
      "aster": 1620,
      "ode": 1621,
      "ably": 1622,
      "Ġmajor": 1623,
      "ĠEx": 1624,
      "Ġflint": 1625,
      "ission": 1626,
      "ras": 1627,
      "atively": 1628,
      "alt": 1629,
      "ĠAb": 1630,
      "ĠSp": 1631,
      "ĠMining": 1632,
      "Ġsepar": 1633,
      "aves": 1634,
      "cent": 1635,
      "ware": 1636,
      "ĠWar": 1637,
      "Ġformed": 1638,
      "Ġoxid": 1639,
      "Ġalloys": 1640,
      "ex": 1641,
      "Ġpain": 1642,
      "Ġdescrib": 1643,
      "Ġoperations": 1644,
      "Ġweap": 1645,
      "Ġaxes": 1646,
      "lish": 1647,
      "Ġfac": 1648,
      "Ġpass": 1649,
      "ĠCl": 1650,
      "ms": 1651,
      "ĠCan": 1652,
      "abin": 1653,
      "Ġtimber": 1654,
      "Ġbecome": 1655,
      "work": 1656,
      "Ġdeposits": 1657,
      "Ġmagnet": 1658,
      "Ġtest": 1659,
      "ules": 1660,
      "Ġsurvival": 1661,
      "Ġshel": 1662,
      "Ġbuilding": 1663,
      "gin": 1664,
      "sor": 1665,
      "Ġpar": 1666,
      "Ġacid": 1667,
      "Ġrepla": 1668,
      "Ġsuggest": 1669,
      "30": 1670,
      "ien": 1671,
      "Ġaut": 1672,
      "atory": 1673,
      "ional": 1674,
      "icult": 1675,
      "ularly": 1676,
      "Ġsuc": 1677,
      "allic": 1678,
      "Ġindic": 1679,
      "Ġhuman": 1680,
      "lu": 1681,
      "Ġâ": 1682,
      "Ġim": 1683,
      "Ġ{\\": 1684,
      "ĠIs": 1685,
      "Ġanal": 1686,
      "met": 1687,
      "app": 1688,
      "Ġnickel": 1689,
      "ĠFe": 1690,
      "Ġassociated": 1691,
      "omin": 1692,
      "Ġcomplet": 1693,
      "Ġclim": 1694,
      "Ġtechnology": 1695,
      "ĠSe": 1696,
      "ores": 1697,
      "Ġrequire": 1698,
      "oved": 1699,
      "Ġbi": 1700,
      "Ġshap": 1701,
      "Ġrate": 1702,
      "Ġgovern": 1703,
      "Ġcountries": 1704,
      "Ġsingle": 1705,
      "ouse": 1706,
      "Ġrest": 1707,
      "Ġincrease": 1708,
      "rest": 1709,
      "ank": 1710,
      "ĠAd": 1711,
      "covered": 1712,
      "Ġspecific": 1713,
      "Ġsubst": 1714,
      "Ġgrowth": 1715,
      "Ġelements": 1716,
      "Ġcr": 1717,
      "Ġcat": 1718,
      "Ġside": 1719,
      "Ġbegan": 1720,
      "ĠSouth": 1721,
      "Ġamong": 1722,
      "Ġespecially": 1723,
      "por": 1724,
      "orph": 1725,
      "Ġdry": 1726,
      "Ġlife": 1727,
      "ĠChina": 1728,
      "Ġoperation": 1729,
      "ax": 1730,
      "Ġaff": 1731,
      "Ġochre": 1732,
      "Ġinit": 1733,
      "Ġ16": 1734,
      "Ġmach": 1735,
      "Ġshould": 1736,
      "loy": 1737,
      "Ġprevent": 1738,
      "Ġremov": 1739,
      "Ġdoes": 1740,
      "med": 1741,
      "oor": 1742,
      "Ġpred": 1743,
      "arth": 1744,
      "stone": 1745,
      "Ġexist": 1746,
      "Ġplace": 1747,
      "Ġlarger": 1748,
      "Ġflo": 1749,
      "Ġbre": 1750,
      "raph": 1751,
      "ulations": 1752,
      "ensive": 1753,
      "Ġreduce": 1754,
      "Ġmass": 1755,
      "Ġlate": 1756,
      "ĠBy": 1757,
      "ternational": 1758,
      "Ġaxe": 1759,
      "ength": 1760,
      "ĠWorld": 1761,
      "Ġfram": 1762,
      "estern": 1763,
      "ĠOn": 1764,
      "Ġdisc": 1765,
      "Ġconsist": 1766,
      "Ġearli": 1767,
      "Ġagainst": 1768,
      "be": 1769,
      "Ġident": 1770,
      "Ġtar": 1771,
      "atic": 1772,
      "Ġfib": 1773,
      "ane": 1774,
      "Ġconver": 1775,
      "Ġmeters": 1776,
      "Ġparts": 1777,
      "Ġextraction": 1778,
      "Ġexpl": 1779,
      "Ġswords": 1780,
      "Ġzinc": 1781,
      "rm": 1782,
      "Ġbott": 1783,
      "Ġmanagement": 1784,
      "Ġpower": 1785,
      "Ġsuccess": 1786,
      "itable": 1787,
      "ĠISA": 1788,
      "amou": 1789,
      "astic": 1790,
      "Ġemp": 1791,
      "Ġhydro": 1792,
      "Ġsource": 1793,
      "ĠCompany": 1794,
      "craft": 1795,
      "alk": 1796,
      "orn": 1797,
      "Ġdam": 1798,
      "Ġshort": 1799,
      "Ġacross": 1800,
      "ption": 1801,
      "Ġsmelter": 1802,
      "amouf": 1803,
      "SM": 1804,
      "ills": 1805,
      "Ġexc": 1806,
      "Ġresults": 1807,
      "mith": 1808,
      "Ġrefer": 1809,
      "Ġpossible": 1810,
      "tal": 1811,
      "yp": 1812,
      "ator": 1813,
      "Ġmult": 1814,
      "Ġevidence": 1815,
      "iversity": 1816,
      "Ġmicro": 1817,
      "ching": 1818,
      "ĠWood": 1819,
      "Ġshow": 1820,
      "ording": 1821,
      "Ġraw": 1822,
      "Ġeffic": 1823,
      "Ġtraditional": 1824,
      "Ġbody": 1825,
      "ilitary": 1826,
      "sh": 1827,
      "Ġfour": 1828,
      "Ġmix": 1829,
      "Ġbar": 1830,
      "Ġconsidered": 1831,
      "ĠCharcoal": 1832,
      "val": 1833,
      "Ġbur": 1834,
      "Ġsea": 1835,
      "ograph": 1836,
      "Ġimpact": 1837,
      "Ġstudy": 1838,
      "for": 1839,
      "Ġsaf": 1840,
      "Ġnow": 1841,
      "Ġmeas": 1842,
      "ached": 1843,
      "apan": 1844,
      "Ġresp": 1845,
      "Ġsystems": 1846,
      "Ġpressure": 1847,
      "play": 1848,
      "Ġores": 1849,
      "rap": 1850,
      "Ġmaint": 1851,
      "Ġvis": 1852,
      "Ġformation": 1853,
      "Ġestab": 1854,
      "Ġmi": 1855,
      "ason": 1856,
      "Ġec": 1857,
      "ify": 1858,
      "Ġcooking": 1859,
      "Ġnecess": 1860,
      "Ġapplied": 1861,
      "ĠEuropean": 1862,
      "Ġanimals": 1863,
      "ER": 1864,
      "iet": 1865,
      "arily": 1866,
      "Ġglass": 1867,
      "irc": 1868,
      "Ġ12": 1869,
      "ĠAustralia": 1870,
      "Ġcase": 1871,
      "Ġfine": 1872,
      "Ġanother": 1873,
      "Ġintrodu": 1874,
      "Ġpotential": 1875,
      "Ġve": 1876,
      "ĠQu": 1877,
      "Ġmold": 1878,
      "itu": 1879,
      "Ġbase": 1880,
      "Ġbene": 1881,
      "ime": 1882,
      "xture": 1883,
      "Ġant": 1884,
      "Ġcommerc": 1885,
      "ĠJapan": 1886,
      "Ġincreasing": 1887,
      "hanol": 1888,
      "att": 1889,
      "ĠSh": 1890,
      "anded": 1891,
      "Ġpottery": 1892,
      "Ġlayer": 1893,
      "Ġtent": 1894,
      "alth": 1895,
      "olithic": 1896,
      "ung": 1897,
      "opy": 1898,
      "Ġchange": 1899,
      "Ġobtain": 1900,
      "Ġmechanism": 1901,
      "ivid": 1902,
      "ĠMany": 1903,
      "ysis": 1904,
      "ervation": 1905,
      "Ġcertain": 1906,
      "iddle": 1907,
      "ward": 1908,
      "Ġwar": 1909,
      "ances": 1910,
      "Ġancient": 1911,
      "Ġrather": 1912,
      "Ġcompon": 1913,
      "Ġcurrent": 1914,
      "Ġtreatment": 1915,
      "ral": 1916,
      "sol": 1917,
      "Ġwind": 1918,
      "Ġhow": 1919,
      "Ġshar": 1920,
      "ĠOne": 1921,
      "Ġparticularly": 1922,
      "Ġhelp": 1923,
      "cue": 1924,
      "Ġhowever": 1925,
      "ĠEl": 1926,
      "Ġfew": 1927,
      "ision": 1928,
      "Ġlength": 1929,
      "ĠFran": 1930,
      "ips": 1931,
      "loom": 1932,
      "Ġvariety": 1933,
      "ribut": 1934,
      "ĠAmerica": 1935,
      "Ġfollowing": 1936,
      "aid": 1937,
      "ense": 1938,
      "Ġmol": 1939,
      "Ġforging": 1940,
      "Ġang": 1941,
      "Ġdifficult": 1942,
      "Ġgreat": 1943,
      "Ġtechnique": 1944,
      "Ġapplications": 1945,
      "less": 1946,
      "eds": 1947,
      "Ġfield": 1948,
      "Ġdel": 1949,
      "Ġname": 1950,
      "ĠCO": 1951,
      "Ġalthough": 1952,
      "sequ": 1953,
      "Ġgreen": 1954,
      "Ġindustrial": 1955,
      "oot": 1956,
      "ert": 1957,
      "rous": 1958,
      "Ġdiam": 1959,
      "ention": 1960,
      "Ġthin": 1961,
      "iple": 1962,
      "Ġoccurs": 1963,
      "most": 1964,
      "Ġcryst": 1965,
      "Ġcalc": 1966,
      "Ġconf": 1967,
      "lement": 1968,
      "ĠCal": 1969,
      "Ġ196": 1970,
      "ronze": 1971,
      "Ġelectric": 1972,
      "Ġbelow": 1973,
      "amouflage": 1974,
      "ats": 1975,
      "Ġfil": 1976,
      "ĠAct": 1977,
      "Ġdem": 1978,
      "ipment": 1979,
      "rown": 1980,
      "Ġstandard": 1981,
      "ection": 1982,
      "Ġbound": 1983,
      "Ġtoget": 1984,
      "chie": 1985,
      "Ġgood": 1986,
      "ĠAfter": 1987,
      "Ġchang": 1988,
      "Ġdesigned": 1989,
      "Ġsulfur": 1990,
      "Ġtogether": 1991,
      "ĠÎ": 1992,
      "Ġfam": 1993,
      "ected": 1994,
      "Ġlocated": 1995,
      "40": 1996,
      "cher": 1997,
      "Ġcondu": 1998,
      "ĠIf": 1999
    },
    "merges": [
      [
        "Ġ",
        "t"
      ],
      [
        "Ġ",
        "a"
      ],
      [
        "i",
        "n"
      ],
      [
        "h",
        "e"
      ],
      [
        "o",
        "n"
      ],
      [
        "r",
        "e"
      ],
      [
        "Ġt",
        "he"
      ],
      [
        "e",
        "r"
      ],
      [
        "Ġ",
        "o"
      ],
      [
        "Ġ",
        "c"
      ],
      [
        "Ġ",
        "s"
      ],
      [
        "a",
        "t"
      ],
      [
        "e",
        "s"
      ],
      [
        "n",
        "d"
      ],
      [
        "a",
        "l"
      ],
      [
        "e",
        "d"
      ],
      [
        "Ġ",
        "f"
      ],
      [
        "e",
        "n"
      ],
      [
        "Ġ",
        "m"
      ],
      [
        "Ġo",
        "f"
      ],
      [
        "Ġ",
        "w"
      ],
      [
        "i",
        "t"
      ],
      [
        "Ġ",
        "b"
      ],
      [
        "in",
        "g"
      ],
      [
        "o",
        "r"
      ],
      [
        "Ġ",
        "p"
      ],
      [
        "i",
        "s"
      ],
      [
        "Ġ",
        "in"
      ],
      [
        "a",
        "r"
      ],
      [
        "r",
        "o"
      ],
      [
        "a",
        "n"
      ],
      [
        "i",
        "on"
      ],
      [
        "Ġa",
        "nd"
      ],
      [
        "i",
        "c"
      ],
      [
        "Ġt",
        "o"
      ],
      [
        "Ġ",
        "d"
      ],
      [
        "a",
        "s"
      ],
      [
        "e",
        "l"
      ],
      [
        "o",
        "u"
      ],
      [
        "i",
        "l"
      ],
      [
        "c",
        "t"
      ],
      [
        "Ġ",
        "l"
      ],
      [
        "en",
        "t"
      ],
      [
        "Ġ",
        "h"
      ],
      [
        "u",
        "s"
      ],
      [
        "Ġ",
        "re"
      ],
      [
        "Ġ",
        "T"
      ],
      [
        "e",
        "t"
      ],
      [
        "o",
        "l"
      ],
      [
        "o",
        "m"
      ],
      [
        "Ġ",
        "is"
      ],
      [
        "u",
        "r"
      ],
      [
        "Ġ",
        "e"
      ],
      [
        "Ġt",
        "h"
      ],
      [
        "l",
        "y"
      ],
      [
        "s",
        "t"
      ],
      [
        "Ġc",
        "on"
      ],
      [
        "Ġ",
        "I"
      ],
      [
        "l",
        "e"
      ],
      [
        "r",
        "a"
      ],
      [
        "Ġf",
        "or"
      ],
      [
        "i",
        "d"
      ],
      [
        "at",
        "ion"
      ],
      [
        "Ġb",
        "e"
      ],
      [
        "c",
        "h"
      ],
      [
        "c",
        "e"
      ],
      [
        "Ġ",
        "g"
      ],
      [
        "i",
        "m"
      ],
      [
        "i",
        "r"
      ],
      [
        "Ġ",
        "n"
      ],
      [
        "Ġ",
        "A"
      ],
      [
        "ĠT",
        "he"
      ],
      [
        "t",
        "e"
      ],
      [
        "Ġa",
        "s"
      ],
      [
        "i",
        "v"
      ],
      [
        "Ġp",
        "ro"
      ],
      [
        "Ġ",
        "C"
      ],
      [
        "o",
        "w"
      ],
      [
        "i",
        "g"
      ],
      [
        "es",
        "t"
      ],
      [
        "Ġ",
        "S"
      ],
      [
        "a",
        "m"
      ],
      [
        "it",
        "h"
      ],
      [
        "Ġ",
        "("
      ],
      [
        "o",
        "t"
      ],
      [
        "u",
        "l"
      ],
      [
        "Ġs",
        "t"
      ],
      [
        "o",
        "d"
      ],
      [
        "Ġa",
        "re"
      ],
      [
        "Ġ",
        "us"
      ],
      [
        "ĠI",
        "n"
      ],
      [
        "Ġo",
        "r"
      ],
      [
        "l",
        "a"
      ],
      [
        "u",
        "t"
      ],
      [
        "Ġw",
        "ith"
      ],
      [
        "Ġ",
        "1"
      ],
      [
        "Ġ",
        "on"
      ],
      [
        "a",
        "d"
      ],
      [
        "Ġa",
        "l"
      ],
      [
        "el",
        "l"
      ],
      [
        "he",
        "r"
      ],
      [
        "er",
        "s"
      ],
      [
        "p",
        "e"
      ],
      [
        "ou",
        "t"
      ],
      [
        "Ġb",
        "y"
      ],
      [
        "Ġa",
        "b"
      ],
      [
        "o",
        "s"
      ],
      [
        "u",
        "re"
      ],
      [
        "o",
        "re"
      ],
      [
        "Ġd",
        "e"
      ],
      [
        "x",
        "t"
      ],
      [
        "Ġa",
        "n"
      ],
      [
        "ro",
        "m"
      ],
      [
        "n",
        "s"
      ],
      [
        "es",
        "s"
      ],
      [
        "v",
        "er"
      ],
      [
        "i",
        "f"
      ],
      [
        "Ġw",
        "as"
      ],
      [
        "v",
        "e"
      ],
      [
        "Ġth",
        "at"
      ],
      [
        "Ġ",
        "M"
      ],
      [
        "Ġm",
        "e"
      ],
      [
        "g",
        "e"
      ],
      [
        "d",
        "u"
      ],
      [
        "t",
        "er"
      ],
      [
        "Ġc",
        "om"
      ],
      [
        "u",
        "m"
      ],
      [
        "Ġ",
        "B"
      ],
      [
        "p",
        "er"
      ],
      [
        "Ġ",
        "it"
      ],
      [
        "Ġs",
        "u"
      ],
      [
        "Ġf",
        "rom"
      ],
      [
        "i",
        "al"
      ],
      [
        "i",
        "es"
      ],
      [
        "a",
        "b"
      ],
      [
        "q",
        "u"
      ],
      [
        "is",
        "t"
      ],
      [
        "al",
        "l"
      ],
      [
        "Ġw",
        "h"
      ],
      [
        "u",
        "n"
      ],
      [
        "o",
        "p"
      ],
      [
        "m",
        "ent"
      ],
      [
        "Q",
        "u"
      ],
      [
        "Ġm",
        "a"
      ],
      [
        "w",
        "er"
      ],
      [
        "Ġab",
        "out"
      ],
      [
        "est",
        "ion"
      ],
      [
        "e",
        "re"
      ],
      [
        "t",
        "h"
      ],
      [
        "at",
        "e"
      ],
      [
        "A",
        "ns"
      ],
      [
        "Qu",
        "estion"
      ],
      [
        "Ans",
        "wer"
      ],
      [
        "Ġ",
        "P"
      ],
      [
        "ct",
        "ion"
      ],
      [
        "at",
        "er"
      ],
      [
        "il",
        "l"
      ],
      [
        "Ġa",
        "t"
      ],
      [
        "ic",
        "al"
      ],
      [
        "Ġ",
        "H"
      ],
      [
        "te",
        "xt"
      ],
      [
        "s",
        "e"
      ],
      [
        "Ġ",
        "F"
      ],
      [
        "a",
        "nd"
      ],
      [
        "Ġ",
        "E"
      ],
      [
        "Ġcon",
        "text"
      ],
      [
        "ir",
        "on"
      ],
      [
        "re",
        "s"
      ],
      [
        "a",
        "in"
      ],
      [
        "Ġt",
        "ell"
      ],
      [
        "Ġe",
        "x"
      ],
      [
        "at",
        "ed"
      ],
      [
        "Ġ",
        "W"
      ],
      [
        "a",
        "c"
      ],
      [
        "it",
        "y"
      ],
      [
        "an",
        "t"
      ],
      [
        "0",
        "0"
      ],
      [
        "ic",
        "h"
      ],
      [
        "Ġ",
        "v"
      ],
      [
        "Ġus",
        "ed"
      ],
      [
        "Ġm",
        "et"
      ],
      [
        "Ġ",
        "k"
      ],
      [
        "ig",
        "h"
      ],
      [
        "ro",
        "u"
      ],
      [
        "Ġc",
        "h"
      ],
      [
        "as",
        "t"
      ],
      [
        "o",
        "c"
      ],
      [
        "Ġs",
        "h"
      ],
      [
        "o",
        "od"
      ],
      [
        "Ġ",
        "2"
      ],
      [
        "r",
        "y"
      ],
      [
        "Ġ",
        "D"
      ],
      [
        "Ġ",
        "r"
      ],
      [
        "Ġc",
        "an"
      ],
      [
        "Ġwh",
        "ich"
      ],
      [
        "or",
        "t"
      ],
      [
        "Ġm",
        "in"
      ],
      [
        "Ġs",
        "e"
      ],
      [
        "p",
        "p"
      ],
      [
        "Ġpro",
        "du"
      ],
      [
        "us",
        "t"
      ],
      [
        "l",
        "d"
      ],
      [
        "it",
        "e"
      ],
      [
        "c",
        "ess"
      ],
      [
        "iv",
        "e"
      ],
      [
        "ar",
        "t"
      ],
      [
        "i",
        "re"
      ],
      [
        "Ġh",
        "a"
      ],
      [
        "Ġ",
        "iron"
      ],
      [
        "g",
        "h"
      ],
      [
        "Ġ",
        "N"
      ],
      [
        "Ġin",
        "c"
      ],
      [
        "Ġ",
        "he"
      ],
      [
        "Ġ",
        "R"
      ],
      [
        "ar",
        "d"
      ],
      [
        "u",
        "d"
      ],
      [
        "n",
        "t"
      ],
      [
        "t",
        "her"
      ],
      [
        "e",
        "ct"
      ],
      [
        "e",
        "m"
      ],
      [
        "a",
        "y"
      ],
      [
        "Ġc",
        "o"
      ],
      [
        "i",
        "b"
      ],
      [
        "i",
        "z"
      ],
      [
        "in",
        "e"
      ],
      [
        "o",
        "g"
      ],
      [
        "Ġcom",
        "p"
      ],
      [
        "Ġ",
        "G"
      ],
      [
        "Ġw",
        "ere"
      ],
      [
        "r",
        "u"
      ],
      [
        "id",
        "e"
      ],
      [
        "i",
        "p"
      ],
      [
        "Ġ",
        "L"
      ],
      [
        "Ġ",
        "en"
      ],
      [
        "Ġl",
        "e"
      ],
      [
        "Ġcon",
        "t"
      ],
      [
        "Ġha",
        "ve"
      ],
      [
        "a",
        "p"
      ],
      [
        "i",
        "a"
      ],
      [
        "Ġ",
        "O"
      ],
      [
        "s",
        "o"
      ],
      [
        "t",
        "ing"
      ],
      [
        "Ġ",
        "\""
      ],
      [
        "al",
        "ly"
      ],
      [
        "Ġ1",
        "9"
      ],
      [
        "Ġre",
        "s"
      ],
      [
        "ur",
        "n"
      ],
      [
        "k",
        "e"
      ],
      [
        "ou",
        "s"
      ],
      [
        "it",
        "ion"
      ],
      [
        "a",
        "ct"
      ],
      [
        "Ġ",
        "u"
      ],
      [
        "ou",
        "r"
      ],
      [
        "â",
        "Ģ"
      ],
      [
        "Ġw",
        "he"
      ],
      [
        "a",
        "ce"
      ],
      [
        "Ġs",
        "m"
      ],
      [
        "Ġn",
        "e"
      ],
      [
        "re",
        "d"
      ],
      [
        "Ġc",
        "ar"
      ],
      [
        "Ġin",
        "t"
      ],
      [
        "Ġfor",
        "m"
      ],
      [
        "k",
        "ing"
      ],
      [
        "Ġal",
        "so"
      ],
      [
        "on",
        "g"
      ],
      [
        "c",
        "o"
      ],
      [
        "Ġn",
        "ot"
      ],
      [
        "Ġsu",
        "ch"
      ],
      [
        "ation",
        "s"
      ],
      [
        "im",
        "p"
      ],
      [
        "om",
        "e"
      ],
      [
        "ab",
        "le"
      ],
      [
        "Ġpro",
        "cess"
      ],
      [
        "Ġa",
        "r"
      ],
      [
        "Ġ",
        "U"
      ],
      [
        "l",
        "o"
      ],
      [
        "c",
        "ed"
      ],
      [
        "Ġw",
        "or"
      ],
      [
        "Ġm",
        "an"
      ],
      [
        "f",
        "f"
      ],
      [
        "o",
        "st"
      ],
      [
        "Ġa",
        "d"
      ],
      [
        "Ġ",
        "ro"
      ],
      [
        "k",
        "s"
      ],
      [
        "Ġo",
        "ther"
      ],
      [
        "'",
        "s"
      ],
      [
        "ĠT",
        "h"
      ],
      [
        "ul",
        "t"
      ],
      [
        "on",
        "e"
      ],
      [
        "el",
        "y"
      ],
      [
        "pe",
        "c"
      ],
      [
        "ore",
        "st"
      ],
      [
        "i",
        "e"
      ],
      [
        "Ġp",
        "l"
      ],
      [
        "igh",
        "t"
      ],
      [
        "b",
        "er"
      ],
      [
        "r",
        "an"
      ],
      [
        "l",
        "ow"
      ],
      [
        "Ġcom",
        "m"
      ],
      [
        "a",
        "v"
      ],
      [
        "ar",
        "y"
      ],
      [
        "ou",
        "nd"
      ],
      [
        "al",
        "s"
      ],
      [
        "Ġh",
        "as"
      ],
      [
        "Ġs",
        "te"
      ],
      [
        "ig",
        "n"
      ],
      [
        "ater",
        "ial"
      ],
      [
        "Ġa",
        "c"
      ],
      [
        "Ġit",
        "s"
      ],
      [
        "Ġm",
        "ore"
      ],
      [
        "as",
        "s"
      ],
      [
        "Ġbe",
        "en"
      ],
      [
        "am",
        "p"
      ],
      [
        "Ġm",
        "aterial"
      ],
      [
        "Ġ",
        "imp"
      ],
      [
        "r",
        "ic"
      ],
      [
        "a",
        "ge"
      ],
      [
        "Ġinc",
        "l"
      ],
      [
        "en",
        "s"
      ],
      [
        "Ġb",
        "ut"
      ],
      [
        "i",
        "an"
      ],
      [
        "v",
        "el"
      ],
      [
        "Ġint",
        "o"
      ],
      [
        "f",
        "t"
      ],
      [
        "Ġth",
        "is"
      ],
      [
        "re",
        "e"
      ],
      [
        "Ġp",
        "art"
      ],
      [
        ")",
        ","
      ],
      [
        "Ġf",
        "urn"
      ],
      [
        "Ġp",
        "er"
      ],
      [
        "Ġus",
        "e"
      ],
      [
        "at",
        "es"
      ],
      [
        "Ġt",
        "e"
      ],
      [
        "Ġk",
        "n"
      ],
      [
        "Ġ",
        "un"
      ],
      [
        "Ġp",
        "re"
      ],
      [
        "ol",
        "d"
      ],
      [
        "or",
        "d"
      ],
      [
        "Ġs",
        "o"
      ],
      [
        "c",
        "es"
      ],
      [
        "la",
        "y"
      ],
      [
        "Ġ",
        "y"
      ],
      [
        "u",
        "e"
      ],
      [
        "rou",
        "gh"
      ],
      [
        "ol",
        "og"
      ],
      [
        "ow",
        "n"
      ],
      [
        "Ġw",
        "ood"
      ],
      [
        "at",
        "ure"
      ],
      [
        "ĠI",
        "t"
      ],
      [
        "Ġincl",
        "ud"
      ],
      [
        "b",
        "on"
      ],
      [
        "Ġthe",
        "ir"
      ],
      [
        "is",
        "h"
      ],
      [
        "ou",
        "ld"
      ],
      [
        "l",
        "es"
      ],
      [
        "Ġs",
        "p"
      ],
      [
        "in",
        "t"
      ],
      [
        "e",
        "ar"
      ],
      [
        "Ġin",
        "d"
      ],
      [
        "Ġs",
        "ur"
      ],
      [
        "Ġma",
        "y"
      ],
      [
        "Ġt",
        "ra"
      ],
      [
        "Ġd",
        "is"
      ],
      [
        "res",
        "s"
      ],
      [
        "rou",
        "nd"
      ],
      [
        ")",
        "."
      ],
      [
        "Ġth",
        "an"
      ],
      [
        "Ġ",
        "K"
      ],
      [
        "an",
        "ce"
      ],
      [
        "at",
        "ing"
      ],
      [
        "ĠTh",
        "is"
      ],
      [
        "Ġt",
        "y"
      ],
      [
        "Ġch",
        "ar"
      ],
      [
        "Ġs",
        "pec"
      ],
      [
        "Ġ",
        "ra"
      ],
      [
        "âĢ",
        "ĵ"
      ],
      [
        "ou",
        "nt"
      ],
      [
        "Ġ",
        "el"
      ],
      [
        "a",
        "g"
      ],
      [
        "t",
        "en"
      ],
      [
        "m",
        "er"
      ],
      [
        "p",
        "t"
      ],
      [
        "p",
        "os"
      ],
      [
        "Ġste",
        "el"
      ],
      [
        "or",
        "m"
      ],
      [
        "il",
        "e"
      ],
      [
        "Ġt",
        "im"
      ],
      [
        "Ġf",
        "orest"
      ],
      [
        "i",
        "ed"
      ],
      [
        "Ġto",
        "ol"
      ],
      [
        "ĠC",
        "h"
      ],
      [
        "d",
        "ition"
      ],
      [
        "a",
        "k"
      ],
      [
        "Ġw",
        "ater"
      ],
      [
        "ad",
        "e"
      ],
      [
        "Ġ",
        "J"
      ],
      [
        "ro",
        "s"
      ],
      [
        "Ġa",
        "pp"
      ],
      [
        "Ġre",
        "m"
      ],
      [
        "Ġd",
        "es"
      ],
      [
        "Ġl",
        "ar"
      ],
      [
        "Ġ2",
        "0"
      ],
      [
        "Ġh",
        "igh"
      ],
      [
        "as",
        "e"
      ],
      [
        "if",
        "ic"
      ],
      [
        "he",
        "d"
      ],
      [
        "p",
        "h"
      ],
      [
        "Ġo",
        "x"
      ],
      [
        "Ġc",
        "ent"
      ],
      [
        "if",
        "f"
      ],
      [
        "am",
        "e"
      ],
      [
        "Ġbe",
        "c"
      ],
      [
        "Ġcar",
        "bon"
      ],
      [
        "Ġc",
        "l"
      ],
      [
        "Ġcon",
        "s"
      ],
      [
        "Ġthe",
        "y"
      ],
      [
        "ur",
        "ing"
      ],
      [
        "a",
        "us"
      ],
      [
        "in",
        "d"
      ],
      [
        "Ġon",
        "e"
      ],
      [
        "ent",
        "s"
      ],
      [
        "Ġf",
        "ir"
      ],
      [
        "ro",
        "w"
      ],
      [
        "Ġm",
        "ost"
      ],
      [
        "v",
        "ed"
      ],
      [
        "ch",
        "n"
      ],
      [
        "i",
        "um"
      ],
      [
        "ra",
        "ct"
      ],
      [
        "ar",
        "ly"
      ],
      [
        "en",
        "ce"
      ],
      [
        "Ġf",
        "l"
      ],
      [
        "ion",
        "s"
      ],
      [
        "co",
        "al"
      ],
      [
        "Ġmet",
        "al"
      ],
      [
        "Ġ",
        "qu"
      ],
      [
        "Ġf",
        "ound"
      ],
      [
        "ou",
        "gh"
      ],
      [
        "Ġt",
        "w"
      ],
      [
        "nd",
        "er"
      ],
      [
        "c",
        "on"
      ],
      [
        "e",
        "p"
      ],
      [
        "an",
        "y"
      ],
      [
        "Ġe",
        "v"
      ],
      [
        "Ġa",
        "g"
      ],
      [
        "Ġs",
        "ome"
      ],
      [
        "a",
        "il"
      ],
      [
        "Ġd",
        "iff"
      ],
      [
        "Ġo",
        "ut"
      ],
      [
        "Ġt",
        "re"
      ],
      [
        "u",
        "b"
      ],
      [
        "Ġre",
        "g"
      ],
      [
        "ical",
        "ly"
      ],
      [
        "or",
        "y"
      ],
      [
        "i",
        "qu"
      ],
      [
        "Ġm",
        "ade"
      ],
      [
        "a",
        "re"
      ],
      [
        "w",
        "e"
      ],
      [
        "on",
        "s"
      ],
      [
        "Ġre",
        "du"
      ],
      [
        "Ġg",
        "en"
      ],
      [
        "Ġ",
        "3"
      ],
      [
        "it",
        "ies"
      ],
      [
        "Ġmin",
        "ing"
      ],
      [
        "Ġof",
        "ten"
      ],
      [
        "Ġu",
        "p"
      ],
      [
        "er",
        "n"
      ],
      [
        "il",
        "d"
      ],
      [
        "Ġp",
        "r"
      ],
      [
        "Ġte",
        "chn"
      ],
      [
        "er",
        "m"
      ],
      [
        "a",
        "ch"
      ],
      [
        "or",
        "s"
      ],
      [
        "ic",
        "k"
      ],
      [
        "Ġe",
        "xt"
      ],
      [
        "Ġre",
        "f"
      ],
      [
        "Ġt",
        "em"
      ],
      [
        "Ġwhe",
        "n"
      ],
      [
        "Ġs",
        "c"
      ],
      [
        "ĠS",
        "t"
      ],
      [
        "Ġb",
        "et"
      ],
      [
        "ment",
        "s"
      ],
      [
        "Ġfurn",
        "ace"
      ],
      [
        "Ġg",
        "ra"
      ],
      [
        "ru",
        "ct"
      ],
      [
        "vel",
        "op"
      ],
      [
        "y",
        "s"
      ],
      [
        "i",
        "ent"
      ],
      [
        "op",
        "per"
      ],
      [
        "Ġc",
        "ol"
      ],
      [
        "Ġo",
        "ver"
      ],
      [
        "Ġ",
        "j"
      ],
      [
        "ar",
        "i"
      ],
      [
        "Ġwhe",
        "re"
      ],
      [
        "in",
        "ing"
      ],
      [
        "it",
        "ed"
      ],
      [
        "Ġ1",
        "8"
      ],
      [
        "c",
        "k"
      ],
      [
        "an",
        "g"
      ],
      [
        "u",
        "ally"
      ],
      [
        "Ġex",
        "p"
      ],
      [
        "Ġre",
        "p"
      ],
      [
        "ver",
        "y"
      ],
      [
        "l",
        "ic"
      ],
      [
        "Ġe",
        "ff"
      ],
      [
        "Ġc",
        "lay"
      ],
      [
        "Ġh",
        "ad"
      ],
      [
        "h",
        "od"
      ],
      [
        "Ġth",
        "rough"
      ],
      [
        "r",
        "on"
      ],
      [
        "it",
        "s"
      ],
      [
        "ur",
        "y"
      ],
      [
        "per",
        "ature"
      ],
      [
        "os",
        "e"
      ],
      [
        "Ġsm",
        "el"
      ],
      [
        "Ġu",
        "nder"
      ],
      [
        "Ġde",
        "velop"
      ],
      [
        "n",
        "g"
      ],
      [
        "ac",
        "k"
      ],
      [
        "Ġ",
        "V"
      ],
      [
        "Ġwor",
        "k"
      ],
      [
        "Ġty",
        "p"
      ],
      [
        "Ġtw",
        "o"
      ],
      [
        "Ġo",
        "per"
      ],
      [
        "ar",
        "k"
      ],
      [
        "f",
        "ter"
      ],
      [
        "00",
        "0"
      ],
      [
        "c",
        "c"
      ],
      [
        "Ġw",
        "e"
      ],
      [
        "ic",
        "e"
      ],
      [
        "ing",
        "s"
      ],
      [
        "ur",
        "al"
      ],
      [
        "Ġb",
        "u"
      ],
      [
        "as",
        "ed"
      ],
      [
        "il",
        "ity"
      ],
      [
        "Ġprodu",
        "ction"
      ],
      [
        "e",
        "ver"
      ],
      [
        "Ġre",
        "c"
      ],
      [
        "Ġthe",
        "se"
      ],
      [
        "Ġsm",
        "all"
      ],
      [
        "Ġf",
        "e"
      ],
      [
        "ter",
        "n"
      ],
      [
        "Ġa",
        "ct"
      ],
      [
        "Ġl",
        "oc"
      ],
      [
        "g",
        "en"
      ],
      [
        "d",
        "e"
      ],
      [
        "r",
        "it"
      ],
      [
        "Ġcomm",
        "on"
      ],
      [
        "g",
        "y"
      ],
      [
        "ĠW",
        "h"
      ],
      [
        "Ġb",
        "la"
      ],
      [
        "ot",
        "h"
      ],
      [
        "Ġde",
        "c"
      ],
      [
        "Ġtem",
        "perature"
      ],
      [
        "Ġa",
        "m"
      ],
      [
        "Ġchar",
        "coal"
      ],
      [
        "o",
        "ve"
      ],
      [
        "Ġy",
        "ear"
      ],
      [
        "g",
        "an"
      ],
      [
        "Ġs",
        "y"
      ],
      [
        "a",
        "w"
      ],
      [
        "we",
        "en"
      ],
      [
        "Ġo",
        "b"
      ],
      [
        "Ġc",
        "all"
      ],
      [
        "Ġpl",
        "ant"
      ],
      [
        "n",
        "e"
      ],
      [
        "ust",
        "r"
      ],
      [
        "Ġfir",
        "st"
      ],
      [
        "Ġb",
        "l"
      ],
      [
        "ul",
        "ar"
      ],
      [
        "Ġc",
        "or"
      ],
      [
        "Ġmet",
        "hod"
      ],
      [
        "t",
        "ed"
      ],
      [
        "p",
        "s"
      ],
      [
        "f",
        "orm"
      ],
      [
        "Ġl",
        "ow"
      ],
      [
        "Ġsh",
        "a"
      ],
      [
        "ĠA",
        "l"
      ],
      [
        "ran",
        "s"
      ],
      [
        "Ġbet",
        "ween"
      ],
      [
        "Ġthe",
        "re"
      ],
      [
        "Ġsu",
        "b"
      ],
      [
        "Ġcon",
        "c"
      ],
      [
        "Ġinc",
        "re"
      ],
      [
        "Ġle",
        "ad"
      ],
      [
        "Ġp",
        "ol"
      ],
      [
        "Ġtool",
        "s"
      ],
      [
        "Ġkn",
        "own"
      ],
      [
        "l",
        "i"
      ],
      [
        "Ġc",
        "opper"
      ],
      [
        "Ġh",
        "and"
      ],
      [
        "Ġv",
        "ari"
      ],
      [
        "Ġd",
        "ist"
      ],
      [
        "aus",
        "e"
      ],
      [
        "Ġon",
        "ly"
      ],
      [
        "ation",
        "al"
      ],
      [
        "Ġman",
        "y"
      ],
      [
        "he",
        "s"
      ],
      [
        "ĠA",
        "s"
      ],
      [
        "la",
        "nd"
      ],
      [
        "Ġc",
        "ast"
      ],
      [
        "Ġs",
        "w"
      ],
      [
        "Ġsur",
        "f"
      ],
      [
        "id",
        "es"
      ],
      [
        "ow",
        "ever"
      ],
      [
        "Ġ",
        "4"
      ],
      [
        "Ġgen",
        "er"
      ],
      [
        "Ġo",
        "re"
      ],
      [
        "Ġh",
        "ard"
      ],
      [
        "r",
        "ib"
      ],
      [
        "Ġin",
        "v"
      ],
      [
        "Ġd",
        "uring"
      ],
      [
        "Ġus",
        "ing"
      ],
      [
        "ib",
        "le"
      ],
      [
        "iz",
        "ed"
      ],
      [
        "Ġs",
        "il"
      ],
      [
        "Ġre",
        "qu"
      ],
      [
        "Ġt",
        "rans"
      ],
      [
        "v",
        "iron"
      ],
      [
        "in",
        "s"
      ],
      [
        "Ġs",
        "ol"
      ],
      [
        "j",
        "ect"
      ],
      [
        "Ġthe",
        "n"
      ],
      [
        "in",
        "ed"
      ],
      [
        "Ġf",
        "ire"
      ],
      [
        "Ġl",
        "ong"
      ],
      [
        "in",
        "es"
      ],
      [
        "an",
        "s"
      ],
      [
        "Ġm",
        "ill"
      ],
      [
        "Ġd",
        "r"
      ],
      [
        "os",
        "s"
      ],
      [
        "el",
        "d"
      ],
      [
        "Ġcent",
        "ury"
      ],
      [
        "Ġc",
        "re"
      ],
      [
        "i",
        "o"
      ],
      [
        "Ġlar",
        "ge"
      ],
      [
        "Ġthe",
        "m"
      ],
      [
        "o",
        "v"
      ],
      [
        "Ġp",
        "ot"
      ],
      [
        "ĠF",
        "or"
      ],
      [
        "ĠC",
        "om"
      ],
      [
        "Ġtim",
        "e"
      ],
      [
        "Ġal",
        "l"
      ],
      [
        "Â",
        "°"
      ],
      [
        "Ġcon",
        "st"
      ],
      [
        "Ġm",
        "od"
      ],
      [
        "Ġw",
        "ell"
      ],
      [
        "Ġpart",
        "ic"
      ],
      [
        "ure",
        "s"
      ],
      [
        "la",
        "g"
      ],
      [
        "Ġas",
        "s"
      ],
      [
        "if",
        "e"
      ],
      [
        "he",
        "m"
      ],
      [
        "Ġg",
        "re"
      ],
      [
        "ac",
        "es"
      ],
      [
        "Ġo",
        "cc"
      ],
      [
        "an",
        "ge"
      ],
      [
        "st",
        "em"
      ],
      [
        "ĠU",
        "n"
      ],
      [
        "Ġmaterial",
        "s"
      ],
      [
        "u",
        "ch"
      ],
      [
        "Ġs",
        "ign"
      ],
      [
        "Ġof",
        "f"
      ],
      [
        "Ġpro",
        "v"
      ],
      [
        "Ġmin",
        "er"
      ],
      [
        "ra",
        "m"
      ],
      [
        "Ġbe",
        "ing"
      ],
      [
        "ĠThe",
        "se"
      ],
      [
        "o",
        "int"
      ],
      [
        "is",
        "s"
      ],
      [
        "ĠA",
        "n"
      ],
      [
        "Ġre",
        "l"
      ],
      [
        "at",
        "ive"
      ],
      [
        "ial",
        "ly"
      ],
      [
        "Ġinclud",
        "ing"
      ],
      [
        "c",
        "ing"
      ],
      [
        "Ġp",
        "h"
      ],
      [
        "w",
        "ood"
      ],
      [
        "om",
        "et"
      ],
      [
        "iz",
        "e"
      ],
      [
        "Ġel",
        "ect"
      ],
      [
        "as",
        "es"
      ],
      [
        "er",
        "v"
      ],
      [
        "al",
        "e"
      ],
      [
        "Ġdiff",
        "ere"
      ],
      [
        "Ġe",
        "m"
      ],
      [
        "Ġen",
        "viron"
      ],
      [
        "ut",
        "ion"
      ],
      [
        "ere",
        "d"
      ],
      [
        "l",
        "ed"
      ],
      [
        "olog",
        "y"
      ],
      [
        "Ġa",
        "ir"
      ],
      [
        "Ġp",
        "e"
      ],
      [
        "Ġn",
        "o"
      ],
      [
        "Ġex",
        "amp"
      ],
      [
        "t",
        "ain"
      ],
      [
        "Ġ",
        "5"
      ],
      [
        "o",
        "k"
      ],
      [
        "Ġp",
        "res"
      ],
      [
        "et",
        "s"
      ],
      [
        "y",
        "d"
      ],
      [
        "Ġc",
        "ut"
      ],
      [
        "Ġd",
        "o"
      ],
      [
        "u",
        "ro"
      ],
      [
        "Ġw",
        "ill"
      ],
      [
        "Ġsurf",
        "ace"
      ],
      [
        "Ġf",
        "in"
      ],
      [
        "pe",
        "nd"
      ],
      [
        "l",
        "ing"
      ],
      [
        "Ġac",
        "c"
      ],
      [
        "Ġa",
        "fter"
      ],
      [
        "Ġst",
        "r"
      ],
      [
        "p",
        "en"
      ],
      [
        "Ġus",
        "ually"
      ],
      [
        "Ġprodu",
        "ct"
      ],
      [
        "Ġcall",
        "ed"
      ],
      [
        "Ġ",
        "very"
      ],
      [
        "Ġl",
        "i"
      ],
      [
        "Ġst",
        "one"
      ],
      [
        "Ġsu",
        "pp"
      ],
      [
        "w",
        "ay"
      ],
      [
        "Ġp",
        "la"
      ],
      [
        "iv",
        "es"
      ],
      [
        "he",
        "n"
      ],
      [
        "um",
        "ber"
      ],
      [
        "f",
        "ore"
      ],
      [
        "Ġsw",
        "ord"
      ],
      [
        "Ġspec",
        "ies"
      ],
      [
        "Ġl",
        "im"
      ],
      [
        "Ġw",
        "ould"
      ],
      [
        "ire",
        "d"
      ],
      [
        "il",
        "y"
      ],
      [
        "Ġcont",
        "ain"
      ],
      [
        "Ġprodu",
        "ced"
      ],
      [
        "ry",
        "st"
      ],
      [
        "Ġk",
        "il"
      ],
      [
        "Ġyear",
        "s"
      ],
      [
        "uro",
        "pe"
      ],
      [
        "ĠWh",
        "at"
      ],
      [
        "Ġc",
        "ap"
      ],
      [
        "Ġa",
        "x"
      ],
      [
        "Ġdes",
        "ign"
      ],
      [
        "u",
        "al"
      ],
      [
        "ĠE",
        "urope"
      ],
      [
        "is",
        "m"
      ],
      [
        "Ġwh",
        "ile"
      ],
      [
        "l",
        "et"
      ],
      [
        "ar",
        "m"
      ],
      [
        "Ġal",
        "low"
      ],
      [
        "Ġb",
        "o"
      ],
      [
        "mer",
        "ic"
      ],
      [
        "t",
        "s"
      ],
      [
        "Ġ",
        "6"
      ],
      [
        "iv",
        "al"
      ],
      [
        "Ġeff",
        "ect"
      ],
      [
        "w",
        "n"
      ],
      [
        "iv",
        "ely"
      ],
      [
        "Ġres",
        "ult"
      ],
      [
        "ĠH",
        "owever"
      ],
      [
        "at",
        "her"
      ],
      [
        "Ġl",
        "ess"
      ],
      [
        "w",
        "or"
      ],
      [
        "Ġh",
        "un"
      ],
      [
        "t",
        "le"
      ],
      [
        "Ġin",
        "st"
      ],
      [
        "ar",
        "s"
      ],
      [
        "Ġst",
        "ruct"
      ],
      [
        "ĠD",
        "e"
      ],
      [
        "i",
        "x"
      ],
      [
        "Ġb",
        "oth"
      ],
      [
        "ist",
        "s"
      ],
      [
        "ard",
        "s"
      ],
      [
        "Ġenviron",
        "ment"
      ],
      [
        "en",
        "e"
      ],
      [
        "Ġal",
        "lo"
      ],
      [
        "oc",
        "i"
      ],
      [
        "Ġe",
        "arly"
      ],
      [
        "is",
        "hed"
      ],
      [
        "in",
        "c"
      ],
      [
        "er",
        "y"
      ],
      [
        "ĠA",
        "meric"
      ],
      [
        "Ġ",
        "Â°"
      ],
      [
        "Ġa",
        "round"
      ],
      [
        "ul",
        "f"
      ],
      [
        "Ġsy",
        "stem"
      ],
      [
        "Ġdiffere",
        "nt"
      ],
      [
        "Ġ20",
        "1"
      ],
      [
        "a",
        "e"
      ],
      [
        "Ġde",
        "f"
      ],
      [
        "oc",
        "k"
      ],
      [
        "i",
        "eld"
      ],
      [
        "n",
        "ess"
      ],
      [
        "Ġ",
        "âĢĵ"
      ],
      [
        "Ġimp",
        "ort"
      ],
      [
        "f",
        "act"
      ],
      [
        "in",
        "ce"
      ],
      [
        "Ġmet",
        "als"
      ],
      [
        "Ġact",
        "iv"
      ],
      [
        "is",
        "e"
      ],
      [
        "ro",
        "l"
      ],
      [
        "Ġinclud",
        "e"
      ],
      [
        "Ġocc",
        "ur"
      ],
      [
        "ic",
        "s"
      ],
      [
        "el",
        "s"
      ],
      [
        "Ġare",
        "a"
      ],
      [
        "i",
        "od"
      ],
      [
        "Ġd",
        "ire"
      ],
      [
        "m",
        "b"
      ],
      [
        "v",
        "ent"
      ],
      [
        "ros",
        "ion"
      ],
      [
        "Ġp",
        "ur"
      ],
      [
        "u",
        "nd"
      ],
      [
        "Ġ",
        "ed"
      ],
      [
        "Ġar",
        "t"
      ],
      [
        "Ġrem",
        "ain"
      ],
      [
        "Ġs",
        "he"
      ],
      [
        "it",
        "es"
      ],
      [
        "ol",
        "low"
      ],
      [
        "ĠN",
        "or"
      ],
      [
        "Ġd",
        "ue"
      ],
      [
        "Ġtre",
        "es"
      ],
      [
        "ent",
        "r"
      ],
      [
        "Ġh",
        "is"
      ],
      [
        "Ġst",
        "ud"
      ],
      [
        "olog",
        "ical"
      ],
      [
        "Ġtechn",
        "iqu"
      ],
      [
        "Ġin",
        "ter"
      ],
      [
        "Ġe",
        "nd"
      ],
      [
        "im",
        "il"
      ],
      [
        "ro",
        "p"
      ],
      [
        "ĠA",
        "r"
      ],
      [
        "Ġexamp",
        "le"
      ],
      [
        "ĠI",
        "nd"
      ],
      [
        "c",
        "y"
      ],
      [
        "Ġg",
        "row"
      ],
      [
        "ĠThe",
        "y"
      ],
      [
        "Ġa",
        "v"
      ],
      [
        "Ġc",
        "ould"
      ],
      [
        "ĠN",
        "e"
      ],
      [
        "Ġne",
        "ed"
      ],
      [
        "ros",
        "s"
      ],
      [
        "Ġ",
        "z"
      ],
      [
        "Ġm",
        "on"
      ],
      [
        "Ġma",
        "in"
      ],
      [
        "Ġbu",
        "ild"
      ],
      [
        "g",
        "ing"
      ],
      [
        "Ġne",
        "w"
      ],
      [
        "ro",
        "du"
      ],
      [
        "Ġg",
        "o"
      ],
      [
        "all",
        "ur"
      ],
      [
        "Ġprocess",
        "es"
      ],
      [
        "at",
        "h"
      ],
      [
        "Ġbec",
        "ause"
      ],
      [
        "Ġwh",
        "o"
      ],
      [
        "{",
        "\\"
      ],
      [
        "Ġe",
        "qu"
      ],
      [
        "Ġde",
        "pos"
      ],
      [
        "hem",
        "ical"
      ],
      [
        "ru",
        "ction"
      ],
      [
        "5",
        "0"
      ],
      [
        "Ġs",
        "lag"
      ],
      [
        "Ġsmel",
        "ting"
      ],
      [
        "ol",
        "e"
      ],
      [
        "Ġd",
        "et"
      ],
      [
        "Ġty",
        "pe"
      ],
      [
        "Ġbl",
        "ast"
      ],
      [
        "ot",
        "t"
      ],
      [
        "f",
        "ul"
      ],
      [
        "ĠThe",
        "re"
      ],
      [
        "out",
        "h"
      ],
      [
        "g",
        "n"
      ],
      [
        "z",
        "e"
      ],
      [
        "per",
        "t"
      ],
      [
        "Ġlar",
        "g"
      ],
      [
        "Ġ",
        "et"
      ],
      [
        "il",
        "t"
      ],
      [
        "Ġ2",
        "00"
      ],
      [
        "Ġhe",
        "at"
      ],
      [
        "Ġn",
        "at"
      ],
      [
        "b",
        "le"
      ],
      [
        "Ġg",
        "as"
      ],
      [
        "ig",
        "in"
      ],
      [
        "Ġst",
        "re"
      ],
      [
        "Ġma",
        "ke"
      ],
      [
        "Ġprodu",
        "ce"
      ],
      [
        "ĠUn",
        "ited"
      ],
      [
        "a",
        "f"
      ],
      [
        "et",
        "y"
      ],
      [
        "Ġsha",
        "ft"
      ],
      [
        "ot",
        "her"
      ],
      [
        "Ġt",
        "ree"
      ],
      [
        "Ġs",
        "ite"
      ],
      [
        "u",
        "fact"
      ],
      [
        "ust",
        "ry"
      ],
      [
        "y",
        "gen"
      ],
      [
        "c",
        "ks"
      ],
      [
        "n",
        "ing"
      ],
      [
        "ĠR",
        "e"
      ],
      [
        "iz",
        "ation"
      ],
      [
        "S",
        "A"
      ],
      [
        "Ġcont",
        "in"
      ],
      [
        "Ġan",
        "y"
      ],
      [
        "Ġ",
        "9"
      ],
      [
        "Ġad",
        "d"
      ],
      [
        "g",
        "es"
      ],
      [
        "Ġ",
        "est"
      ],
      [
        "Ġs",
        "ulf"
      ],
      [
        "im",
        "es"
      ],
      [
        "Ġb",
        "el"
      ],
      [
        "v",
        "ival"
      ],
      [
        "Ġo",
        "pen"
      ],
      [
        "ch",
        "an"
      ],
      [
        "Ġc",
        "er"
      ],
      [
        "Ġc",
        "ount"
      ],
      [
        "Ġf",
        "ollow"
      ],
      [
        "Ġp",
        "ow"
      ],
      [
        "p",
        "ar"
      ],
      [
        "on",
        "d"
      ],
      [
        "v",
        "es"
      ],
      [
        "Ġm",
        "uch"
      ],
      [
        "u",
        "el"
      ],
      [
        "Ġcom",
        "b"
      ],
      [
        "Ġat",
        "t"
      ],
      [
        "Ġso",
        "il"
      ],
      [
        "Ġl",
        "and"
      ],
      [
        "Ġli",
        "ke"
      ],
      [
        "Ġs",
        "l"
      ],
      [
        "Ġp",
        "ract"
      ],
      [
        "Ġp",
        "op"
      ],
      [
        "um",
        "in"
      ],
      [
        "Ġcomm",
        "un"
      ],
      [
        "Ġcons",
        "id"
      ],
      [
        "Ġh",
        "um"
      ],
      [
        "Ġind",
        "ustry"
      ],
      [
        "on",
        "es"
      ],
      [
        "iv",
        "ers"
      ],
      [
        "Ġman",
        "ufact"
      ],
      [
        "ction",
        "s"
      ],
      [
        "Ġox",
        "ygen"
      ],
      [
        "g",
        "ed"
      ],
      [
        "Ġst",
        "ill"
      ],
      [
        "if",
        "ied"
      ],
      [
        "Ġfurn",
        "aces"
      ],
      [
        "Ġtra",
        "dition"
      ],
      [
        "Ġt",
        "erm"
      ],
      [
        "Ġel",
        "e"
      ],
      [
        "Ġpro",
        "te"
      ],
      [
        "Ġor",
        "gan"
      ],
      [
        "imil",
        "ar"
      ],
      [
        "Ġar",
        "ch"
      ],
      [
        "Ġh",
        "yd"
      ],
      [
        "Ġcomp",
        "any"
      ],
      [
        "o",
        "b"
      ],
      [
        "ĠB",
        "C"
      ],
      [
        "Ġb",
        "ack"
      ],
      [
        "Ġconc",
        "entr"
      ],
      [
        "a",
        "ke"
      ],
      [
        "er",
        "ing"
      ],
      [
        "Ġp",
        "oint"
      ],
      [
        "ct",
        "ed"
      ],
      [
        "id",
        "ent"
      ],
      [
        "Ġen",
        "g"
      ],
      [
        "Ġper",
        "iod"
      ],
      [
        "t",
        "il"
      ],
      [
        "Ġs",
        "ame"
      ],
      [
        "Ġf",
        "la"
      ],
      [
        "Ġth",
        "ree"
      ],
      [
        "ĠH",
        "e"
      ],
      [
        "Ġs",
        "k"
      ],
      [
        "Ġl",
        "ay"
      ],
      [
        "con",
        "om"
      ],
      [
        "Ġmill",
        "ion"
      ],
      [
        "h",
        "an"
      ],
      [
        "Ġf",
        "er"
      ],
      [
        "Ġt",
        "r"
      ],
      [
        "Ġm",
        "ic"
      ],
      [
        "ro",
        "ly"
      ],
      [
        "Ġe",
        "ar"
      ],
      [
        "Ġg",
        "r"
      ],
      [
        "Ġor",
        "igin"
      ],
      [
        "Ġdevelop",
        "ed"
      ],
      [
        "Ġa",
        "p"
      ],
      [
        "Ġme",
        "chan"
      ],
      [
        "Ġh",
        "am"
      ],
      [
        "ĠS",
        "ome"
      ],
      [
        "Ġcont",
        "rol"
      ],
      [
        "Ġwor",
        "ld"
      ],
      [
        "m",
        "on"
      ],
      [
        "Ġ",
        "0"
      ],
      [
        "Ġin",
        "te"
      ],
      [
        "ab",
        "ility"
      ],
      [
        "Ġne",
        "ar"
      ],
      [
        "ĠC",
        "on"
      ],
      [
        "act",
        "er"
      ],
      [
        "g",
        "et"
      ],
      [
        "i",
        "ous"
      ],
      [
        "n",
        "ce"
      ],
      [
        "Ġre",
        "t"
      ],
      [
        "t",
        "ers"
      ],
      [
        "Ġp",
        "ress"
      ],
      [
        "ĠC",
        "or"
      ],
      [
        "Ġst",
        "and"
      ],
      [
        "th",
        "ough"
      ],
      [
        "con",
        "d"
      ],
      [
        "r",
        "i"
      ],
      [
        "}",
        "}"
      ],
      [
        "Ġs",
        "ize"
      ],
      [
        "ĠL",
        "e"
      ],
      [
        "g",
        "g"
      ],
      [
        "v",
        "ing"
      ],
      [
        "as",
        "h"
      ],
      [
        "Ġcon",
        "dition"
      ],
      [
        "Ġg",
        "round"
      ],
      [
        "os",
        "ition"
      ],
      [
        "Ġma",
        "gn"
      ],
      [
        "omet",
        "imes"
      ],
      [
        "h",
        "ip"
      ],
      [
        "Ġo",
        "wn"
      ],
      [
        "Ġd",
        "own"
      ],
      [
        "ce",
        "pt"
      ],
      [
        "ĠA",
        "ustr"
      ],
      [
        "ĠE",
        "ng"
      ],
      [
        "Ġs",
        "et"
      ],
      [
        "Ġin",
        "f"
      ],
      [
        "ar",
        "ch"
      ],
      [
        "Ġan",
        "im"
      ],
      [
        "ist",
        "ory"
      ],
      [
        "Ġin",
        "s"
      ],
      [
        "ra",
        "ft"
      ],
      [
        "âĢ",
        "Ķ"
      ],
      [
        "Ġnat",
        "ural"
      ],
      [
        "m",
        "a"
      ],
      [
        "Ġb",
        "r"
      ],
      [
        "le",
        "x"
      ],
      [
        "ra",
        "c"
      ],
      [
        "Ġimport",
        "ant"
      ],
      [
        "Ġs",
        "our"
      ],
      [
        "Ġmin",
        "e"
      ],
      [
        "2",
        "0"
      ],
      [
        "Ġtyp",
        "ically"
      ],
      [
        "c",
        "he"
      ],
      [
        "d",
        "er"
      ],
      [
        "Ġc",
        "hemical"
      ],
      [
        "Ġ",
        "ent"
      ],
      [
        "Ġ",
        "if"
      ],
      [
        "Ġh",
        "ig"
      ],
      [
        "at",
        "ely"
      ],
      [
        "Ġwith",
        "in"
      ],
      [
        "Ġmod",
        "ern"
      ],
      [
        "Ġc",
        "ur"
      ],
      [
        "Ġe",
        "as"
      ],
      [
        "Ġdr",
        "ill"
      ],
      [
        "Ġpro",
        "pert"
      ],
      [
        "Ġpr",
        "im"
      ],
      [
        "d",
        "es"
      ],
      [
        "er",
        "gy"
      ],
      [
        "Ġse",
        "ver"
      ],
      [
        "a",
        "red"
      ],
      [
        "o",
        "king"
      ],
      [
        "Ġl",
        "ater"
      ],
      [
        "Ġapp",
        "ro"
      ],
      [
        "Ġ",
        "7"
      ],
      [
        "Ġ",
        "8"
      ],
      [
        "Ġs",
        "imilar"
      ],
      [
        "Ġf",
        "ood"
      ],
      [
        "ĠA",
        "t"
      ],
      [
        "Ġco",
        "al"
      ],
      [
        "Ġapp",
        "lic"
      ],
      [
        "Ġpe",
        "op"
      ],
      [
        "\"",
        "."
      ],
      [
        "Ġc",
        "amp"
      ],
      [
        "Ġp",
        "ie"
      ],
      [
        "Ġtyp",
        "es"
      ],
      [
        "Ġsign",
        "ific"
      ],
      [
        "ve",
        "red"
      ],
      [
        "Ġloc",
        "al"
      ],
      [
        "ryst",
        "all"
      ],
      [
        "Ġde",
        "p"
      ],
      [
        "Ġc",
        "le"
      ],
      [
        "Ġp",
        "oss"
      ],
      [
        "Ġma",
        "king"
      ],
      [
        "Ġad",
        "v"
      ],
      [
        "Ġsever",
        "al"
      ],
      [
        "Ġcor",
        "rosion"
      ],
      [
        "Ġsol",
        "id"
      ],
      [
        "ĠCom",
        "p"
      ],
      [
        "i",
        "or"
      ],
      [
        "k",
        "es"
      ],
      [
        "Ġf",
        "act"
      ],
      [
        "ent",
        "ial"
      ],
      [
        "ra",
        "ction"
      ],
      [
        "Ġbe",
        "fore"
      ],
      [
        "im",
        "ent"
      ],
      [
        "Ġco",
        "st"
      ],
      [
        "ĠSt",
        "ates"
      ],
      [
        "Ġ",
        "'"
      ],
      [
        "Ġc",
        "aus"
      ],
      [
        "Ġex",
        "per"
      ],
      [
        "Ġvari",
        "ous"
      ],
      [
        "o",
        "x"
      ],
      [
        "ur",
        "ther"
      ],
      [
        "Ġg",
        "old"
      ],
      [
        "Ġle",
        "vel"
      ],
      [
        "ish",
        "ing"
      ],
      [
        "Ġconst",
        "ruction"
      ],
      [
        "os",
        "ed"
      ],
      [
        "Ġcast",
        "ing"
      ],
      [
        "Ã",
        "©"
      ],
      [
        "Ġm",
        "ar"
      ],
      [
        "ith",
        "ic"
      ],
      [
        "Ġc",
        "ult"
      ],
      [
        "Ġb",
        "as"
      ],
      [
        "is",
        "ed"
      ],
      [
        "rough",
        "t"
      ],
      [
        "u",
        "p"
      ],
      [
        "o",
        "f"
      ],
      [
        "u",
        "te"
      ],
      [
        "y",
        "l"
      ],
      [
        "Ġo",
        "ld"
      ],
      [
        "Ġs",
        "ince"
      ],
      [
        "Ġf",
        "uel"
      ],
      [
        "Ġe",
        "conom"
      ],
      [
        "Ġg",
        "rou"
      ],
      [
        "ĠA",
        "f"
      ],
      [
        "Ġare",
        "as"
      ],
      [
        "Ġun",
        "til"
      ],
      [
        "Ġmethod",
        "s"
      ],
      [
        "Ġinv",
        "ol"
      ],
      [
        "Ġhun",
        "ting"
      ],
      [
        "ĠAustr",
        "al"
      ],
      [
        "u",
        "g"
      ],
      [
        "Ġw",
        "ay"
      ],
      [
        "Ġth",
        "ose"
      ],
      [
        "ver",
        "n"
      ],
      [
        "r",
        "ies"
      ],
      [
        "Ġm",
        "ed"
      ],
      [
        "Ġp",
        "at"
      ],
      [
        "Ġn",
        "umber"
      ],
      [
        "ist",
        "or"
      ],
      [
        "Ġdire",
        "ct"
      ],
      [
        "er",
        "c"
      ],
      [
        "Ġl",
        "it"
      ],
      [
        "Ġpre",
        "c"
      ],
      [
        "in",
        "a"
      ],
      [
        "ent",
        "ly"
      ],
      [
        "ick",
        "el"
      ],
      [
        "Ġm",
        "ust"
      ],
      [
        "ĠS",
        "w"
      ],
      [
        "Ġproduct",
        "s"
      ],
      [
        "re",
        "ad"
      ],
      [
        "Ġap",
        "pe"
      ],
      [
        "Ġsignific",
        "ant"
      ],
      [
        "re",
        "at"
      ],
      [
        "Ġev",
        "en"
      ],
      [
        "Ġbla",
        "de"
      ],
      [
        "a",
        "ve"
      ],
      [
        "Ġs",
        "aw"
      ],
      [
        "Ġp",
        "ig"
      ],
      [
        "Ġre",
        "se"
      ],
      [
        "allur",
        "gy"
      ],
      [
        "Ġ",
        "es"
      ],
      [
        "Ġen",
        "ergy"
      ],
      [
        "Ġcont",
        "ent"
      ],
      [
        "Ġstre",
        "ng"
      ],
      [
        "l",
        "ass"
      ],
      [
        "Ġs",
        "ometimes"
      ],
      [
        "Ġf",
        "un"
      ],
      [
        "Ġm",
        "el"
      ],
      [
        "us",
        "h"
      ],
      [
        "Ġe",
        "ach"
      ],
      [
        "ow",
        "s"
      ],
      [
        "form",
        "ation"
      ],
      [
        "p",
        "ort"
      ],
      [
        "te",
        "m"
      ],
      [
        "Ġass",
        "oci"
      ],
      [
        "Ġcondition",
        "s"
      ],
      [
        "o",
        "id"
      ],
      [
        "y",
        "c"
      ],
      [
        "ot",
        "s"
      ],
      [
        "ant",
        "s"
      ],
      [
        "Ġco",
        "ol"
      ],
      [
        "ĠCh",
        "ar"
      ],
      [
        "x",
        "im"
      ],
      [
        "am",
        "b"
      ],
      [
        "Ġ1",
        "0"
      ],
      [
        "Ġk",
        "e"
      ],
      [
        "ĠAf",
        "ric"
      ],
      [
        "en",
        "g"
      ],
      [
        "iv",
        "en"
      ],
      [
        "Ġox",
        "ide"
      ],
      [
        "Ġrep",
        "ort"
      ],
      [
        "u",
        "c"
      ],
      [
        "re",
        "nt"
      ],
      [
        "ter",
        "y"
      ],
      [
        "Ġminer",
        "als"
      ],
      [
        "Ġsupp",
        "ort"
      ],
      [
        "Ġb",
        "od"
      ],
      [
        "ĠI",
        "ron"
      ],
      [
        "Ġminer",
        "al"
      ],
      [
        "m",
        "an"
      ],
      [
        "iv",
        "ed"
      ],
      [
        "Ġtre",
        "at"
      ],
      [
        "Ġam",
        "ount"
      ],
      [
        "Ġav",
        "ail"
      ],
      [
        "Ġpeop",
        "le"
      ],
      [
        "c",
        "ient"
      ],
      [
        "m",
        "el"
      ],
      [
        "Ġham",
        "mer"
      ],
      [
        "i",
        "res"
      ],
      [
        "n",
        "am"
      ],
      [
        "Ġde",
        "pend"
      ],
      [
        "ĠW",
        "or"
      ],
      [
        "Ġimp",
        "ro"
      ],
      [
        "Ġag",
        "ain"
      ],
      [
        "Ġl",
        "o"
      ],
      [
        "Ġl",
        "ight"
      ],
      [
        "her",
        "n"
      ],
      [
        "it",
        "her"
      ],
      [
        "il",
        "it"
      ],
      [
        "i",
        "am"
      ],
      [
        "o",
        "ol"
      ],
      [
        "Ġs",
        "and"
      ],
      [
        "Ġal",
        "ong"
      ],
      [
        "Ġob",
        "ject"
      ],
      [
        "Ġenvironment",
        "al"
      ],
      [
        "Ġpropert",
        "ies"
      ],
      [
        "Ġv",
        "al"
      ],
      [
        "Ġgra",
        "in"
      ],
      [
        "Ġcontin",
        "u"
      ],
      [
        "m",
        "e"
      ],
      [
        "Ġr",
        "ange"
      ],
      [
        "Ġ19",
        "9"
      ],
      [
        "1",
        "9"
      ],
      [
        "al",
        "ity"
      ],
      [
        "Ġp",
        "ub"
      ],
      [
        "ou",
        "n"
      ],
      [
        "Ġredu",
        "ction"
      ],
      [
        "ĠNor",
        "th"
      ],
      [
        "Ġmanufact",
        "ure"
      ],
      [
        "re",
        "n"
      ],
      [
        "Ġ1",
        "7"
      ],
      [
        "f",
        "er"
      ],
      [
        "Ġth",
        "ough"
      ],
      [
        "ĠP",
        "ro"
      ],
      [
        "Ġse",
        "cond"
      ],
      [
        "Ġsha",
        "pe"
      ],
      [
        "or",
        "ation"
      ],
      [
        "Ġd",
        "ra"
      ],
      [
        "ul",
        "ation"
      ],
      [
        "ĠB",
        "rit"
      ],
      [
        "Ġreg",
        "ion"
      ],
      [
        "Ġgener",
        "ally"
      ],
      [
        "Ġarch",
        "ae"
      ],
      [
        "r",
        "ing"
      ],
      [
        "Ġre",
        "d"
      ],
      [
        "Ġhig",
        "her"
      ],
      [
        "le",
        "ct"
      ],
      [
        "Ġind",
        "ustr"
      ],
      [
        "Ġn",
        "on"
      ],
      [
        "Ġtemperature",
        "s"
      ],
      [
        "i",
        "er"
      ],
      [
        "t",
        "y"
      ],
      [
        "Ġb",
        "ro"
      ],
      [
        "Ġto",
        "p"
      ],
      [
        "ĠR",
        "es"
      ],
      [
        "Ġform",
        "s"
      ],
      [
        "s",
        "c"
      ],
      [
        "us",
        "s"
      ],
      [
        "ĠW",
        "hen"
      ],
      [
        "Ġmin",
        "es"
      ],
      [
        "ific",
        "ation"
      ],
      [
        "\"",
        ","
      ],
      [
        "Ġ",
        "+"
      ],
      [
        "el",
        "f"
      ],
      [
        "Ġad",
        "dition"
      ],
      [
        "Ġso",
        "ft"
      ],
      [
        "Ġrequ",
        "ired"
      ],
      [
        "j",
        "or"
      ],
      [
        "id",
        "d"
      ],
      [
        "Ġwith",
        "out"
      ],
      [
        "Ġbec",
        "ame"
      ],
      [
        "Ġsil",
        "ic"
      ],
      [
        "Ġsil",
        "ver"
      ],
      [
        "Ġstruct",
        "ure"
      ],
      [
        "as",
        "ing"
      ],
      [
        "Ġeng",
        "ine"
      ],
      [
        "e",
        "c"
      ],
      [
        "ĠC",
        "ar"
      ],
      [
        "Ġdevelop",
        "ment"
      ],
      [
        "Ġtechniqu",
        "es"
      ],
      [
        "Ġ",
        "Z"
      ],
      [
        "Ġb",
        "urn"
      ],
      [
        "ic",
        "t"
      ],
      [
        "il",
        "s"
      ],
      [
        "id",
        "ed"
      ],
      [
        "ĠC",
        "o"
      ],
      [
        "Ġde",
        "ep"
      ],
      [
        "Ġcommon",
        "ly"
      ],
      [
        "Ġstreng",
        "th"
      ],
      [
        "c",
        "rib"
      ],
      [
        "p",
        "ent"
      ],
      [
        "s",
        "is"
      ],
      [
        "v",
        "en"
      ],
      [
        "Ġ",
        "Y"
      ],
      [
        "nd",
        "ed"
      ],
      [
        "Ġal",
        "umin"
      ],
      [
        "iqu",
        "id"
      ],
      [
        "g",
        "ra"
      ],
      [
        "Ġc",
        "our"
      ],
      [
        "es",
        "e"
      ],
      [
        "ic",
        "es"
      ],
      [
        "Ġg",
        "u"
      ],
      [
        "Ġro",
        "ck"
      ],
      [
        "Ġspec",
        "ial"
      ],
      [
        "Ġc",
        "ell"
      ],
      [
        "iv",
        "ing"
      ],
      [
        "ĠM",
        "et"
      ],
      [
        "ff",
        "ic"
      ],
      [
        "Ġcl",
        "ass"
      ],
      [
        "b",
        "y"
      ],
      [
        "n",
        "er"
      ],
      [
        "u",
        "le"
      ],
      [
        "v",
        "ers"
      ],
      [
        "Ġwas",
        "te"
      ],
      [
        "ĠO",
        "ther"
      ],
      [
        "Ġres",
        "ist"
      ],
      [
        "Ġallo",
        "y"
      ],
      [
        "a",
        "ir"
      ],
      [
        "Ġb",
        "ased"
      ],
      [
        "iv",
        "er"
      ],
      [
        "ĠG",
        "erm"
      ],
      [
        "Ġkil",
        "n"
      ],
      [
        "in",
        "k"
      ],
      [
        "Ġs",
        "ites"
      ],
      [
        "Ġf",
        "urther"
      ],
      [
        "ch",
        "re"
      ],
      [
        "ch",
        "ar"
      ],
      [
        "Ġst",
        "ra"
      ],
      [
        "l",
        "ished"
      ],
      [
        "Ġm",
        "at"
      ],
      [
        "Ġtim",
        "es"
      ],
      [
        "Ġ20",
        "2"
      ],
      [
        "y",
        "le"
      ],
      [
        "Ġw",
        "id"
      ],
      [
        "Ġv",
        "ol"
      ],
      [
        "ĠU",
        "S"
      ],
      [
        "Ġprov",
        "ide"
      ],
      [
        "pe",
        "ct"
      ],
      [
        "id",
        "ence"
      ],
      [
        "Ġst",
        "ate"
      ],
      [
        "a",
        "per"
      ],
      [
        "c",
        "hes"
      ],
      [
        "t",
        "he"
      ],
      [
        "t",
        "ic"
      ],
      [
        "Ġm",
        "ark"
      ],
      [
        "Ġp",
        "ers"
      ],
      [
        "ul",
        "l"
      ],
      [
        "Ġab",
        "ove"
      ],
      [
        "Ġlow",
        "er"
      ],
      [
        "Ġg",
        "e"
      ],
      [
        "Ġus",
        "es"
      ],
      [
        "Ġpur",
        "pos"
      ],
      [
        "in",
        "er"
      ],
      [
        "al",
        "c"
      ],
      [
        "Ġkn",
        "ife"
      ],
      [
        "Ġforest",
        "ry"
      ],
      [
        "a",
        "u"
      ],
      [
        "in",
        "ation"
      ],
      [
        "Ġ1",
        "5"
      ],
      [
        "ĠF",
        "orest"
      ],
      [
        "Ġ19",
        "8"
      ],
      [
        "ag",
        "es"
      ],
      [
        "1",
        "0"
      ],
      [
        "Ġd",
        "ay"
      ],
      [
        "roly",
        "sis"
      ],
      [
        "l",
        "ied"
      ],
      [
        "Ġs",
        "imp"
      ],
      [
        "Ġst",
        "art"
      ],
      [
        "Ġ19",
        "7"
      ],
      [
        ".",
        "."
      ],
      [
        "r",
        "is"
      ],
      [
        "age",
        "ment"
      ],
      [
        "la",
        "ge"
      ],
      [
        "r",
        "ation"
      ],
      [
        "Ġp",
        "y"
      ],
      [
        "Ġe",
        "ither"
      ],
      [
        "av",
        "y"
      ],
      [
        "Ġtra",
        "ining"
      ],
      [
        "Ġs",
        "er"
      ],
      [
        "Ġf",
        "low"
      ],
      [
        "Ġh",
        "ot"
      ],
      [
        "et",
        "er"
      ],
      [
        "Ġth",
        "ick"
      ],
      [
        "Ġhe",
        "l"
      ],
      [
        "Ġforest",
        "s"
      ],
      [
        "Ġpres",
        "ent"
      ],
      [
        "ĠNe",
        "w"
      ],
      [
        "Ġavail",
        "able"
      ],
      [
        "Ġst",
        "ress"
      ],
      [
        "Ġplant",
        "s"
      ],
      [
        "ĠAmeric",
        "an"
      ],
      [
        "ĠAfric",
        "a"
      ],
      [
        "Ġl",
        "iquid"
      ],
      [
        "Ġt",
        "ons"
      ],
      [
        "Ġchar",
        "acter"
      ],
      [
        "Ġed",
        "ge"
      ],
      [
        "Ġw",
        "all"
      ],
      [
        "ir",
        "d"
      ],
      [
        "ĠO",
        "ld"
      ],
      [
        ".",
        "\""
      ],
      [
        "Ġbu",
        "ilt"
      ],
      [
        "g",
        "ram"
      ],
      [
        "i",
        "pp"
      ],
      [
        "an",
        "n"
      ],
      [
        "Ġre",
        "a"
      ],
      [
        "Ġsu",
        "gg"
      ],
      [
        "Ġr",
        "is"
      ],
      [
        "Ġres",
        "our"
      ],
      [
        "pec",
        "ially"
      ],
      [
        "Ġcut",
        "ting"
      ],
      [
        "Ġstr",
        "ong"
      ],
      [
        "t",
        "o"
      ],
      [
        "u",
        "es"
      ],
      [
        "he",
        "re"
      ],
      [
        "Ġs",
        "ing"
      ],
      [
        "as",
        "ter"
      ],
      [
        "od",
        "e"
      ],
      [
        "ab",
        "ly"
      ],
      [
        "Ġma",
        "jor"
      ],
      [
        "ĠE",
        "x"
      ],
      [
        "Ġfl",
        "int"
      ],
      [
        "iss",
        "ion"
      ],
      [
        "r",
        "as"
      ],
      [
        "at",
        "ively"
      ],
      [
        "al",
        "t"
      ],
      [
        "ĠA",
        "b"
      ],
      [
        "ĠS",
        "p"
      ],
      [
        "ĠM",
        "ining"
      ],
      [
        "Ġse",
        "par"
      ],
      [
        "av",
        "es"
      ],
      [
        "c",
        "ent"
      ],
      [
        "w",
        "are"
      ],
      [
        "ĠW",
        "ar"
      ],
      [
        "Ġform",
        "ed"
      ],
      [
        "Ġox",
        "id"
      ],
      [
        "Ġallo",
        "ys"
      ],
      [
        "e",
        "x"
      ],
      [
        "Ġp",
        "ain"
      ],
      [
        "Ġdes",
        "crib"
      ],
      [
        "Ġoper",
        "ations"
      ],
      [
        "Ġwe",
        "ap"
      ],
      [
        "Ġax",
        "es"
      ],
      [
        "l",
        "ish"
      ],
      [
        "Ġf",
        "ac"
      ],
      [
        "Ġp",
        "ass"
      ],
      [
        "ĠC",
        "l"
      ],
      [
        "m",
        "s"
      ],
      [
        "ĠC",
        "an"
      ],
      [
        "ab",
        "in"
      ],
      [
        "Ġtim",
        "ber"
      ],
      [
        "Ġbec",
        "ome"
      ],
      [
        "wor",
        "k"
      ],
      [
        "Ġdepos",
        "its"
      ],
      [
        "Ġmagn",
        "et"
      ],
      [
        "Ġt",
        "est"
      ],
      [
        "ul",
        "es"
      ],
      [
        "Ġsur",
        "vival"
      ],
      [
        "Ġshe",
        "l"
      ],
      [
        "Ġbuild",
        "ing"
      ],
      [
        "g",
        "in"
      ],
      [
        "s",
        "or"
      ],
      [
        "Ġp",
        "ar"
      ],
      [
        "Ġac",
        "id"
      ],
      [
        "Ġrep",
        "la"
      ],
      [
        "Ġsugg",
        "est"
      ],
      [
        "3",
        "0"
      ],
      [
        "i",
        "en"
      ],
      [
        "Ġa",
        "ut"
      ],
      [
        "at",
        "ory"
      ],
      [
        "ion",
        "al"
      ],
      [
        "ic",
        "ult"
      ],
      [
        "ul",
        "arly"
      ],
      [
        "Ġsu",
        "c"
      ],
      [
        "all",
        "ic"
      ],
      [
        "Ġind",
        "ic"
      ],
      [
        "Ġhum",
        "an"
      ],
      [
        "l",
        "u"
      ],
      [
        "Ġ",
        "â"
      ],
      [
        "Ġ",
        "im"
      ],
      [
        "Ġ",
        "{\\"
      ],
      [
        "ĠI",
        "s"
      ],
      [
        "Ġan",
        "al"
      ],
      [
        "m",
        "et"
      ],
      [
        "a",
        "pp"
      ],
      [
        "Ġn",
        "ickel"
      ],
      [
        "ĠF",
        "e"
      ],
      [
        "Ġassoci",
        "ated"
      ],
      [
        "om",
        "in"
      ],
      [
        "Ġcomp",
        "let"
      ],
      [
        "Ġcl",
        "im"
      ],
      [
        "Ġtechn",
        "ology"
      ],
      [
        "ĠS",
        "e"
      ],
      [
        "ore",
        "s"
      ],
      [
        "Ġrequ",
        "ire"
      ],
      [
        "o",
        "ved"
      ],
      [
        "Ġb",
        "i"
      ],
      [
        "Ġsh",
        "ap"
      ],
      [
        "Ġr",
        "ate"
      ],
      [
        "Ġgo",
        "vern"
      ],
      [
        "Ġcount",
        "ries"
      ],
      [
        "Ġsing",
        "le"
      ],
      [
        "ou",
        "se"
      ],
      [
        "Ġre",
        "st"
      ],
      [
        "Ġincre",
        "ase"
      ],
      [
        "re",
        "st"
      ],
      [
        "an",
        "k"
      ],
      [
        "ĠA",
        "d"
      ],
      [
        "co",
        "vered"
      ],
      [
        "Ġspec",
        "ific"
      ],
      [
        "Ġsub",
        "st"
      ],
      [
        "Ġgrow",
        "th"
      ],
      [
        "Ġele",
        "ments"
      ],
      [
        "Ġc",
        "r"
      ],
      [
        "Ġc",
        "at"
      ],
      [
        "Ġs",
        "ide"
      ],
      [
        "Ġbe",
        "gan"
      ],
      [
        "ĠS",
        "outh"
      ],
      [
        "Ġam",
        "ong"
      ],
      [
        "Ġes",
        "pecially"
      ],
      [
        "p",
        "or"
      ],
      [
        "or",
        "ph"
      ],
      [
        "Ġd",
        "ry"
      ],
      [
        "Ġl",
        "ife"
      ],
      [
        "ĠCh",
        "ina"
      ],
      [
        "Ġoper",
        "ation"
      ],
      [
        "a",
        "x"
      ],
      [
        "Ġa",
        "ff"
      ],
      [
        "Ġo",
        "chre"
      ],
      [
        "Ġin",
        "it"
      ],
      [
        "Ġ1",
        "6"
      ],
      [
        "Ġma",
        "ch"
      ],
      [
        "Ġsh",
        "ould"
      ],
      [
        "lo",
        "y"
      ],
      [
        "Ġpre",
        "vent"
      ],
      [
        "Ġrem",
        "ov"
      ],
      [
        "Ġdo",
        "es"
      ],
      [
        "m",
        "ed"
      ],
      [
        "o",
        "or"
      ],
      [
        "Ġp",
        "red"
      ],
      [
        "ar",
        "th"
      ],
      [
        "st",
        "one"
      ],
      [
        "Ġex",
        "ist"
      ],
      [
        "Ġpla",
        "ce"
      ],
      [
        "Ġlarg",
        "er"
      ],
      [
        "Ġf",
        "lo"
      ],
      [
        "Ġb",
        "re"
      ],
      [
        "ra",
        "ph"
      ],
      [
        "ul",
        "ations"
      ],
      [
        "ens",
        "ive"
      ],
      [
        "Ġredu",
        "ce"
      ],
      [
        "Ġm",
        "ass"
      ],
      [
        "Ġl",
        "ate"
      ],
      [
        "ĠB",
        "y"
      ],
      [
        "tern",
        "ational"
      ],
      [
        "Ġax",
        "e"
      ],
      [
        "eng",
        "th"
      ],
      [
        "ĠWor",
        "ld"
      ],
      [
        "Ġf",
        "ram"
      ],
      [
        "est",
        "ern"
      ],
      [
        "ĠO",
        "n"
      ],
      [
        "Ġdis",
        "c"
      ],
      [
        "Ġcons",
        "ist"
      ],
      [
        "Ġear",
        "li"
      ],
      [
        "Ġagain",
        "st"
      ],
      [
        "b",
        "e"
      ],
      [
        "Ġ",
        "ident"
      ],
      [
        "Ġt",
        "ar"
      ],
      [
        "at",
        "ic"
      ],
      [
        "Ġf",
        "ib"
      ],
      [
        "an",
        "e"
      ],
      [
        "Ġcon",
        "ver"
      ],
      [
        "Ġmet",
        "ers"
      ],
      [
        "Ġpart",
        "s"
      ],
      [
        "Ġext",
        "raction"
      ],
      [
        "Ġexp",
        "l"
      ],
      [
        "Ġsword",
        "s"
      ],
      [
        "Ġz",
        "inc"
      ],
      [
        "r",
        "m"
      ],
      [
        "Ġb",
        "ott"
      ],
      [
        "Ġman",
        "agement"
      ],
      [
        "Ġpow",
        "er"
      ],
      [
        "Ġsuc",
        "cess"
      ],
      [
        "it",
        "able"
      ],
      [
        "ĠI",
        "SA"
      ],
      [
        "am",
        "ou"
      ],
      [
        "ast",
        "ic"
      ],
      [
        "Ġem",
        "p"
      ],
      [
        "Ġhyd",
        "ro"
      ],
      [
        "Ġsour",
        "ce"
      ],
      [
        "ĠComp",
        "any"
      ],
      [
        "c",
        "raft"
      ],
      [
        "al",
        "k"
      ],
      [
        "or",
        "n"
      ],
      [
        "Ġd",
        "am"
      ],
      [
        "Ġsh",
        "ort"
      ],
      [
        "Ġac",
        "ross"
      ],
      [
        "pt",
        "ion"
      ],
      [
        "Ġsmel",
        "ter"
      ],
      [
        "amou",
        "f"
      ],
      [
        "S",
        "M"
      ],
      [
        "ill",
        "s"
      ],
      [
        "Ġex",
        "c"
      ],
      [
        "Ġresult",
        "s"
      ],
      [
        "m",
        "ith"
      ],
      [
        "Ġref",
        "er"
      ],
      [
        "Ġposs",
        "ible"
      ],
      [
        "t",
        "al"
      ],
      [
        "y",
        "p"
      ],
      [
        "at",
        "or"
      ],
      [
        "Ġm",
        "ult"
      ],
      [
        "Ġev",
        "idence"
      ],
      [
        "ivers",
        "ity"
      ],
      [
        "Ġmic",
        "ro"
      ],
      [
        "ch",
        "ing"
      ],
      [
        "ĠW",
        "ood"
      ],
      [
        "Ġsh",
        "ow"
      ],
      [
        "ord",
        "ing"
      ],
      [
        "Ġra",
        "w"
      ],
      [
        "Ġeff",
        "ic"
      ],
      [
        "Ġtradition",
        "al"
      ],
      [
        "Ġbod",
        "y"
      ],
      [
        "ilit",
        "ary"
      ],
      [
        "s",
        "h"
      ],
      [
        "Ġf",
        "our"
      ],
      [
        "Ġm",
        "ix"
      ],
      [
        "Ġb",
        "ar"
      ],
      [
        "Ġconsid",
        "ered"
      ],
      [
        "ĠChar",
        "coal"
      ],
      [
        "v",
        "al"
      ],
      [
        "Ġb",
        "ur"
      ],
      [
        "Ġse",
        "a"
      ],
      [
        "og",
        "raph"
      ],
      [
        "Ġimp",
        "act"
      ],
      [
        "Ġstud",
        "y"
      ],
      [
        "f",
        "or"
      ],
      [
        "Ġs",
        "af"
      ],
      [
        "Ġn",
        "ow"
      ],
      [
        "Ġme",
        "as"
      ],
      [
        "ac",
        "hed"
      ],
      [
        "ap",
        "an"
      ],
      [
        "Ġres",
        "p"
      ],
      [
        "Ġsystem",
        "s"
      ],
      [
        "Ġpress",
        "ure"
      ],
      [
        "p",
        "lay"
      ],
      [
        "Ġo",
        "res"
      ],
      [
        "ra",
        "p"
      ],
      [
        "Ġma",
        "int"
      ],
      [
        "Ġv",
        "is"
      ],
      [
        "Ġform",
        "ation"
      ],
      [
        "Ġest",
        "ab"
      ],
      [
        "Ġm",
        "i"
      ],
      [
        "as",
        "on"
      ],
      [
        "Ġe",
        "c"
      ],
      [
        "if",
        "y"
      ],
      [
        "Ġco",
        "oking"
      ],
      [
        "Ġne",
        "cess"
      ],
      [
        "Ġapp",
        "lied"
      ],
      [
        "ĠEurope",
        "an"
      ],
      [
        "Ġanim",
        "als"
      ],
      [
        "E",
        "R"
      ],
      [
        "i",
        "et"
      ],
      [
        "ar",
        "ily"
      ],
      [
        "Ġg",
        "lass"
      ],
      [
        "ir",
        "c"
      ],
      [
        "Ġ1",
        "2"
      ],
      [
        "ĠAustral",
        "ia"
      ],
      [
        "Ġc",
        "ase"
      ],
      [
        "Ġf",
        "ine"
      ],
      [
        "Ġan",
        "other"
      ],
      [
        "Ġint",
        "rodu"
      ],
      [
        "Ġpot",
        "ential"
      ],
      [
        "Ġ",
        "ve"
      ],
      [
        "Ġ",
        "Qu"
      ],
      [
        "Ġm",
        "old"
      ],
      [
        "it",
        "u"
      ],
      [
        "Ġb",
        "ase"
      ],
      [
        "Ġb",
        "ene"
      ],
      [
        "im",
        "e"
      ],
      [
        "xt",
        "ure"
      ],
      [
        "Ġan",
        "t"
      ],
      [
        "Ġcomm",
        "erc"
      ],
      [
        "ĠJ",
        "apan"
      ],
      [
        "Ġincre",
        "asing"
      ],
      [
        "han",
        "ol"
      ],
      [
        "at",
        "t"
      ],
      [
        "ĠS",
        "h"
      ],
      [
        "and",
        "ed"
      ],
      [
        "Ġpot",
        "tery"
      ],
      [
        "Ġlay",
        "er"
      ],
      [
        "Ġt",
        "ent"
      ],
      [
        "al",
        "th"
      ],
      [
        "ol",
        "ithic"
      ],
      [
        "un",
        "g"
      ],
      [
        "op",
        "y"
      ],
      [
        "Ġch",
        "ange"
      ],
      [
        "Ġob",
        "tain"
      ],
      [
        "Ġmechan",
        "ism"
      ],
      [
        "iv",
        "id"
      ],
      [
        "ĠM",
        "any"
      ],
      [
        "ys",
        "is"
      ],
      [
        "erv",
        "ation"
      ],
      [
        "Ġcer",
        "tain"
      ],
      [
        "idd",
        "le"
      ],
      [
        "w",
        "ard"
      ],
      [
        "Ġw",
        "ar"
      ],
      [
        "an",
        "ces"
      ],
      [
        "Ġan",
        "cient"
      ],
      [
        "Ġr",
        "ather"
      ],
      [
        "Ġcomp",
        "on"
      ],
      [
        "Ġcur",
        "rent"
      ],
      [
        "Ġtreat",
        "ment"
      ],
      [
        "r",
        "al"
      ],
      [
        "s",
        "ol"
      ],
      [
        "Ġw",
        "ind"
      ],
      [
        "Ġh",
        "ow"
      ],
      [
        "Ġsh",
        "ar"
      ],
      [
        "ĠO",
        "ne"
      ],
      [
        "Ġpartic",
        "ularly"
      ],
      [
        "Ġhel",
        "p"
      ],
      [
        "c",
        "ue"
      ],
      [
        "Ġh",
        "owever"
      ],
      [
        "ĠE",
        "l"
      ],
      [
        "Ġfe",
        "w"
      ],
      [
        "is",
        "ion"
      ],
      [
        "Ġl",
        "ength"
      ],
      [
        "ĠF",
        "ran"
      ],
      [
        "ip",
        "s"
      ],
      [
        "lo",
        "om"
      ],
      [
        "Ġvari",
        "ety"
      ],
      [
        "rib",
        "ut"
      ],
      [
        "ĠAmeric",
        "a"
      ],
      [
        "Ġfollow",
        "ing"
      ],
      [
        "a",
        "id"
      ],
      [
        "en",
        "se"
      ],
      [
        "Ġm",
        "ol"
      ],
      [
        "Ġfor",
        "ging"
      ],
      [
        "Ġan",
        "g"
      ],
      [
        "Ġdiff",
        "icult"
      ],
      [
        "Ġgre",
        "at"
      ],
      [
        "Ġtechniqu",
        "e"
      ],
      [
        "Ġapplic",
        "ations"
      ],
      [
        "l",
        "ess"
      ],
      [
        "ed",
        "s"
      ],
      [
        "Ġf",
        "ield"
      ],
      [
        "Ġd",
        "el"
      ],
      [
        "Ġn",
        "ame"
      ],
      [
        "ĠC",
        "O"
      ],
      [
        "Ġal",
        "though"
      ],
      [
        "se",
        "qu"
      ],
      [
        "Ġgre",
        "en"
      ],
      [
        "Ġindustr",
        "ial"
      ],
      [
        "o",
        "ot"
      ],
      [
        "er",
        "t"
      ],
      [
        "ro",
        "us"
      ],
      [
        "Ġd",
        "iam"
      ],
      [
        "ent",
        "ion"
      ],
      [
        "Ġth",
        "in"
      ],
      [
        "ip",
        "le"
      ],
      [
        "Ġoccur",
        "s"
      ],
      [
        "m",
        "ost"
      ],
      [
        "Ġc",
        "ryst"
      ],
      [
        "Ġc",
        "alc"
      ],
      [
        "Ġcon",
        "f"
      ],
      [
        "le",
        "ment"
      ],
      [
        "ĠC",
        "al"
      ],
      [
        "Ġ19",
        "6"
      ],
      [
        "ron",
        "ze"
      ],
      [
        "Ġelect",
        "ric"
      ],
      [
        "Ġbel",
        "ow"
      ],
      [
        "amouf",
        "lage"
      ],
      [
        "at",
        "s"
      ],
      [
        "Ġf",
        "il"
      ],
      [
        "ĠA",
        "ct"
      ],
      [
        "Ġde",
        "m"
      ],
      [
        "ip",
        "ment"
      ],
      [
        "row",
        "n"
      ],
      [
        "Ġstand",
        "ard"
      ],
      [
        "e",
        "ction"
      ],
      [
        "Ġb",
        "ound"
      ],
      [
        "Ġto",
        "get"
      ],
      [
        "ch",
        "ie"
      ],
      [
        "Ġg",
        "ood"
      ],
      [
        "ĠA",
        "fter"
      ],
      [
        "Ġch",
        "ang"
      ],
      [
        "Ġdesign",
        "ed"
      ],
      [
        "Ġsulf",
        "ur"
      ],
      [
        "Ġtoget",
        "her"
      ],
      [
        "Ġ",
        "Î"
      ],
      [
        "Ġf",
        "am"
      ],
      [
        "ect",
        "ed"
      ],
      [
        "Ġloc",
        "ated"
      ],
      [
        "4",
        "0"
      ],
      [
        "c",
        "her"
      ],
      [
        "Ġcon",
        "du"
      ],
      [
        "ĠI",
        "f"
      ]
    ]
  }
}