{
  "version": "1.0",
  "truncation": null,
  "padding": null,
  "added_tokens": [
    {
      "id": 0,
      "content": "[UNK]",
      "single_word": false,
      "lstrip": false,
      "rstrip": false,
      "normalized": false,
      "special": true
    },
    {
      "id": 1,
      "content": "[PAD]",
      "single_word": false,
      "lstrip": false,
      "rstrip": false,
      "normalized": false,
      "special": true
    },
    {
      "id": 2,
      "content": "[SOS]",
      "single_word": false,
      "lstrip": false,
      "rstrip": false,
      "normalized": false,
      "special": true
    },
    {
      "id": 3,
      "content": "[EOS]",
      "single_word": false,
      "lstrip": false,
      "rstrip": false,
      "normalized": false,
      "special": true
    }
  ],
  "normalizer": null,
  "pre_tokenizer": {
    "type": "ByteLevel",
    "add_prefix_space": false,
    "trim_offsets": true,
    "use_regex": true
  },
  "post_processor": null,
  "decoder": {
    "type": "ByteLevel",
    "add_prefix_space": true,
    "trim_offsets": true,
    "use_regex": true
  },
  "model": {
    "type": "BPE",
    "dropout": null,
    "unk_token": "[UNK]",
    "continuing_subword_prefix": null,
    "end_of_word_suffix": null,
    "fuse_unk": false,
    "byte_fallback": false,
    "ignore_merges": false,
    "vocab": {
      "[UNK]": 0,
      "[PAD]": 1,
      "[SOS]": 2,
      "[EOS]": 3,
      "!": 4,
      "\"": 5,
      "#": 6,
      "$": 7,
      "%": 8,
      "&": 9,
      "'": 10,
      "(": 11,
      ")": 12,
      "*": 13,
      "+": 14,
      ",": 15,
      "-": 16,
      ".": 17,
      "/": 18,
      "0": 19,
      "1": 20,
      "2": 21,
      "3": 22,
      "4": 23,
      "5": 24,
      "6": 25,
      "7": 26,
      "8": 27,
      "9": 28,
      ":": 29,
      ";": 30,
      "<": 31,
      "=": 32,
      ">": 33,
      "?": 34,
      "@": 35,
      "A": 36,
      "B": 37,
      "C": 38,
      "D": 39,
      "E": 40,
      "F": 41,
      "G": 42,
      "H": 43,
      "I": 44,
      "J": 45,
      "K": 46,
      "L": 47,
      "M": 48,
      "N": 49,
      "O": 50,
      "P": 51,
      "Q": 52,
      "R": 53,
      "S": 54,
      "T": 55,
      "U": 56,
      "V": 57,
      "W": 58,
      "X": 59,
      "Y": 60,
      "Z": 61,
      "[": 62,
      "\\": 63,
      "]": 64,
      "^": 65,
      "_": 66,
      "a": 67,
      "b": 68,
      "c": 69,
      "d": 70,
      "e": 71,
      "f": 72,
      "g": 73,
      "h": 74,
      "i": 75,
      "j": 76,
      "k": 77,
      "l": 78,
      "m": 79,
      "n": 80,
      "o": 81,
      "p": 82,
      "q": 83,
      "r": 84,
      "s": 85,
      "t": 86,
      "u": 87,
      "v": 88,
      "w": 89,
      "x": 90,
      "y": 91,
      "z": 92,
      "{": 93,
      "|": 94,
      "}": 95,
      "~": 96,
      "¡": 97,
      "¢": 98,
      "£": 99,
      "¤": 100,
      "¥": 101,
      "¦": 102,
      "§": 103,
      "¨": 104,
      "©": 105,
      "ª": 106,
      "«": 107,
      "¬": 108,
      "®": 109,
      "¯": 110,
      "°": 111,
      "±": 112,
      "²": 113,
      "³": 114,
      "´": 115,
      "µ": 116,
      "¶": 117,
      "·": 118,
      "¸": 119,
      "¹": 120,
      "º": 121,
      "»": 122,
      "¼": 123,
      "½": 124,
      "¾": 125,
      "¿": 126,
      "Â": 127,
      "Ã": 128,
      "Ä": 129,
      "Å": 130,
      "Ç": 131,
      "È": 132,
      "É": 133,
      "Ê": 134,
      "Ë": 135,
      "Ì": 136,
      "Î": 137,
      "Ï": 138,
      "Ð": 139,
      "Ñ": 140,
      "Ò": 141,
      "Ó": 142,
      "×": 143,
      "Ø": 144,
      "Ù": 145,
      "Ú": 146,
      "Û": 147,
      "à": 148,
      "á": 149,
      "â": 150,
      "ä": 151,
      "å": 152,
      "æ": 153,
      "ç": 154,
      "è": 155,
      "é": 156,
      "ê": 157,
      "ë": 158,
      "ì": 159,
      "ï": 160,
      "Ġ": 161,
      "Ģ": 162,
      "ģ": 163,
      "Ĥ": 164,
      "ĥ": 165,
      "Ħ": 166,
      "ħ": 167,
      "Ĩ": 168,
      "ĩ": 169,
      "Ī": 170,
      "ī": 171,
      "Ĭ": 172,
      "ĭ": 173,
      "Į": 174,
      "į": 175,
      "İ": 176,
      "ı": 177,
      "Ĳ": 178,
      "ĳ": 179,
      "Ĵ": 180,
      "ĵ": 181,
      "Ķ": 182,
      "ķ": 183,
      "ĸ": 184,
      "Ĺ": 185,
      "ĺ": 186,
      "Ļ": 187,
      "ļ": 188,
      "Ľ": 189,
      "ľ": 190,
      "Ŀ": 191,
      "ŀ": 192,
      "Ł": 193,
      "ł": 194,
      "Ń": 195,
      "Ġt": 196,
      "Ġa": 197,
      "in": 198,
      "he": 199,
      "on": 200,
      "re": 201,
      "Ġthe": 202,
      "er": 203,
      "Ġo": 204,
      "Ġc": 205,
      "Ġs": 206,
      "at": 207,
      "es": 208,
      "nd": 209,
      "al": 210,
      "ed": 211,
      "Ġf": 212,
      "en": 213,
      "Ġm": 214,
      "Ġof": 215,
      "Ġw": 216,
      "it": 217,
      "Ġb": 218,
      "ing": 219,
      "or": 220,
      "Ġp": 221,
      "is": 222,
      "Ġin": 223,
      "ar": 224,
      "ro": 225,
      "an": 226,
      "ion": 227,
      "Ġand": 228,
      "ic": 229,
      "Ġto": 230,
      "Ġd": 231,
      "as": 232,
      "el": 233,
      "ou": 234,
      "il": 235,
      "ct": 236,
      "Ġl": 237,
      "ent": 238,
      "Ġh": 239,
      "us": 240,
      "Ġre": 241,
      "ĠT": 242,
      "et": 243,
      "ol": 244,
      "om": 245,
      "Ġis": 246,
      "ur": 247,
      "Ġe": 248,
      "Ġth": 249,
      "ly": 250,
      "st": 251,
      "Ġcon": 252,
      "ĠI": 253,
      "le": 254,
      "ra": 255,
      "Ġfor": 256,
      "id": 257,
      "ation": 258,
      "Ġbe": 259,
      "ch": 260,
      "ce": 261,
      "Ġg": 262,
      "im": 263,
      "ir": 264,
      "Ġn": 265,
      "ĠA": 266,
      "ĠThe": 267,
      "te": 268,
      "Ġas": 269,
      "iv": 270,
      "Ġpro": 271,
      "ĠC": 272,
      "ow": 273,
      "ig": 274,
      "est": 275,
      "ĠS": 276,
      "am": 277,
      "ith": 278,
      "Ġ(": 279,
      "ot": 280,
      "ul": 281,
      "Ġst": 282,
      "od": 283,
      "Ġare": 284,
      "Ġus": 285,
      "ĠIn": 286,
      "Ġor": 287,
      "la": 288,
      "ut": 289,
      "Ġwith": 290,
      "Ġ1": 291,
      "Ġon": 292,
      "ad": 293,
      "Ġal": 294,
      "ell": 295,
      "her": 296,
      "ers": 297,
      "pe": 298,
      "out": 299,
      "Ġby": 300,
      "Ġab": 301,
      "os": 302,
      "ure": 303,
      "ore": 304,
      "Ġde": 305,
      "xt": 306,
      "Ġan": 307,
      "rom": 308,
      "ns": 309,
      "ess": 310,
      "ver": 311,
      "if": 312,
      "Ġwas": 313,
      "ve": 314,
      "Ġthat": 315,
      "ĠM": 316,
      "Ġme": 317,
      "ge": 318,
      "du": 319,
      "ter": 320,
      "Ġcom": 321,
      "um": 322,
      "ĠB": 323,
      "per": 324,
      "Ġit": 325,
      "Ġsu": 326,
      "Ġfrom": 327,
      "ial": 328,
      "ies": 329,
      "ab": 330,
      "qu": 331,
      "ist": 332,
      "all": 333,
      "Ġwh": 334,
      "un": 335,
      "op": 336,
      "ment": 337,
      "Qu": 338,
      "Ġma": 339,
      "wer": 340,
      "Ġabout": 341,
      "estion": 342,
      "ere": 343,
      "th": 344,
      "ate": 345,
      "Ans": 346,
      "Question": 347,
      "Answer": 348,
      "ĠP": 349,
      "ction": 350,
      "ater": 351,
      "ill": 352,
      "Ġat": 353,
      "ical": 354,
      "ĠH": 355,
      "text": 356,
      "se": 357,
      "ĠF": 358,
      "and": 359,
      "ĠE": 360,
      "Ġcontext": 361,
      "iron": 362,
      "res": 363,
      "ain": 364,
      "Ġtell": 365,
      "Ġex": 366,
      "ated": 367,
      "ĠW": 368,
      "ac": 369,
      "ity": 370,
      "ant": 371,
      "00": 372,
      "ich": 373,
      "Ġv": 374,
      "Ġused": 375,
      "Ġmet": 376,
      "Ġk": 377,
      "igh": 378,
      "rou": 379,
      "Ġch": 380,
      "ast": 381,
      "oc": 382,
      "Ġsh": 383,
      "ood": 384,
      "Ġ2": 385,
      "ry": 386,
      "ĠD": 387,
      "Ġr": 388,
      "Ġcan": 389,
      "Ġwhich": 390,
      "ort": 391,
      "Ġmin": 392,
      "Ġse": 393,
      "pp": 394,
      "Ġprodu": 395,
      "ust": 396,
      "ld": 397,
      "ite": 398,
      "cess": 399,
      "ive": 400,
      "art": 401,
      "ire": 402,
      "Ġha": 403,
      "Ġiron": 404,
      "gh": 405,
      "ĠN": 406,
      "Ġinc": 407,
      "Ġhe": 408,
      "ĠR": 409,
      "ard": 410,
      "ud": 411,
      "nt": 412,
      "ther": 413,
      "ect": 414,
      "em": 415,
      "ay": 416,
      "Ġco": 417,
      "ib": 418,
      "iz": 419,
      "ine": 420,
      "og": 421,
      "Ġcomp": 422,
      "ĠG": 423,
      "Ġwere": 424,
      "ru": 425,
      "ide": 426,
      "ip": 427,
      "ĠL": 428,
      "Ġen": 429,
      "Ġle": 430,
      "Ġcont": 431,
      "Ġhave": 432,
      "ap": 433,
      "ia": 434,
      "ĠO": 435,
      "so": 436,
      "ting": 437,
      "Ġ\"": 438,
      "ally": 439,
      "Ġ19": 440,
      "Ġres": 441,
      "urn": 442,
      "ke": 443,
      "ous": 444,
      "ition": 445,
      "act": 446,
      "Ġu": 447,
      "our": 448,
      "âĢ": 449,
      "Ġwhe": 450,
      "ace": 451,
      "Ġsm": 452,
      "Ġne": 453,
      "red": 454,
      "Ġcar": 455,
      "Ġint": 456,
      "Ġform": 457,
      "king": 458,
      "Ġalso": 459,
      "ong": 460,
      "co": 461,
      "Ġnot": 462,
      "Ġsuch": 463,
      "ations": 464,
      "imp": 465,
      "ome": 466,
      "able": 467,
      "Ġprocess": 468,
      "Ġar": 469,
      "ĠU": 470,
      "lo": 471,
      "ced": 472,
      "Ġwor": 473,
      "Ġman": 474,
      "ff": 475,
      "ost": 476,
      "Ġad": 477,
      "Ġro": 478,
      "ks": 479,
      "Ġother": 480,
      "'s": 481,
      "ĠTh": 482,
      "ult": 483,
      "one": 484,
      "ely": 485,
      "pec": 486,
      "orest": 487,
      "ie": 488,
      "Ġpl": 489,
      "ight": 490,
      "ber": 491,
      "ran": 492,
      "low": 493,
      "Ġcomm": 494,
      "av": 495,
      "ary": 496,
      "ound": 497,
      "als": 498,
      "Ġhas": 499,
      "Ġste": 500,
      "ign": 501,
      "aterial": 502,
      "Ġac": 503,
      "Ġits": 504,
      "Ġmore": 505,
      "ass": 506,
      "Ġbeen": 507,
      "amp": 508,
      "Ġmaterial": 509,
      "Ġimp": 510,
      "ric": 511,
      "age": 512,
      "Ġincl": 513,
      "ens": 514,
      "Ġbut": 515,
      "ian": 516,
      "vel": 517,
      "Ġinto": 518,
      "ft": 519,
      "Ġthis": 520,
      "ree": 521,
      "Ġpart": 522,
      "),": 523,
      "Ġfurn": 524,
      "Ġper": 525,
      "Ġuse": 526,
      "ates": 527,
      "Ġte": 528,
      "Ġkn": 529,
      "Ġun": 530,
      "Ġpre": 531,
      "old": 532,
      "ord": 533,
      "Ġso": 534,
      "ces": 535,
      "lay": 536,
      "Ġy": 537,
      "ue": 538,
      "rough": 539,
      "olog": 540,
      "own": 541,
      "Ġwood": 542,
      "ature": 543,
      "ĠIt": 544,
      "Ġinclud": 545,
      "bon": 546,
      "Ġtheir": 547,
      "ish": 548,
      "ould": 549,
      "les": 550,
      "Ġsp": 551,
      "int": 552,
      "ear": 553,
      "Ġind": 554,
      "Ġsur": 555,
      "Ġmay": 556,
      "Ġtra": 557,
      "Ġdis": 558,
      "ress": 559,
      "round": 560,
      ").": 561,
      "Ġthan": 562,
      "ĠK": 563,
      "ance": 564,
      "ating": 565,
      "ĠThis": 566,
      "Ġty": 567,
      "Ġchar": 568,
      "Ġspec": 569,
      "Ġra": 570,
      "âĢĵ": 571,
      "ount": 572,
      "Ġel": 573,
      "ag": 574,
      "ten": 575,
      "mer": 576,
      "pt": 577,
      "pos": 578,
      "Ġsteel": 579,
      "orm": 580,
      "ile": 581,
      "Ġtim": 582,
      "Ġforest": 583,
      "ied": 584,
      "Ġtool": 585,
      "ĠCh": 586,
      "dition": 587,
      "ak": 588,
      "Ġwater": 589,
      "ade": 590,
      "ĠJ": 591,
      "ros": 592,
      "Ġapp": 593,
      "Ġrem": 594,
      "Ġdes": 595,
      "Ġlar": 596,
      "Ġ20": 597,
      "Ġhigh": 598,
      "ase": 599,
      "ific": 600,
      "hed": 601,
      "ph": 602,
      "Ġox": 603,
      "Ġcent": 604,
      "iff": 605,
      "ame": 606,
      "Ġbec": 607,
      "Ġcarbon": 608,
      "Ġcl": 609,
      "Ġcons": 610,
      "Ġthey": 611,
      "uring": 612,
      "aus": 613,
      "ind": 614,
      "Ġone": 615,
      "ents": 616,
      "Ġfir": 617,
      "row": 618,
      "Ġmost": 619,
      "ved": 620,
      "chn": 621,
      "ium": 622,
      "ract": 623,
      "arly": 624,
      "ence": 625,
      "Ġfl": 626,
      "ions": 627,
      "coal": 628,
      "Ġmetal": 629,
      "Ġqu": 630,
      "Ġfound": 631,
      "ough": 632,
      "Ġtw": 633,
      "nder": 634,
      "con": 635,
      "ep": 636,
      "any": 637,
      "Ġev": 638,
      "Ġag": 639,
      "Ġsome": 640,
      "ail": 641,
      "Ġdiff": 642,
      "Ġout": 643,
      "Ġtre": 644,
      "ub": 645,
      "Ġreg": 646,
      "ically": 647,
      "ory": 648,
      "iqu": 649,
      "Ġmade": 650,
      "are": 651,
      "we": 652,
      "ons": 653,
      "Ġredu": 654,
      "Ġgen": 655,
      "Ġ3": 656,
      "ities": 657,
      "Ġmining": 658,
      "Ġoften": 659,
      "Ġup": 660,
      "ern": 661,
      "ild": 662,
      "Ġpr": 663,
      "Ġtechn": 664,
      "erm": 665,
      "ach": 666,
      "ors": 667,
      "ick": 668,
      "Ġext": 669,
      "Ġref": 670,
      "Ġtem": 671,
      "Ġwhen": 672,
      "Ġsc": 673,
      "ĠSt": 674,
      "Ġbet": 675,
      "ments": 676,
      "Ġfurnace": 677,
      "Ġgra": 678,
      "ruct": 679,
      "velop": 680,
      "ys": 681,
      "ient": 682,
      "opper": 683,
      "Ġcol": 684,
      "Ġover": 685,
      "Ġj": 686,
      "ari": 687,
      "Ġwhere": 688,
      "ining": 689,
      "ited": 690,
      "Ġ18": 691,
      "ck": 692,
      "ang": 693,
      "ually": 694,
      "Ġexp": 695,
      "Ġrep": 696,
      "very": 697,
      "lic": 698,
      "Ġeff": 699,
      "Ġclay": 700,
      "Ġhad": 701,
      "hod": 702,
      "Ġthrough": 703,
      "ron": 704,
      "its": 705,
      "ury": 706,
      "perature": 707,
      "ose": 708,
      "Ġsmel": 709,
      "Ġunder": 710,
      "Ġdevelop": 711,
      "ng": 712,
      "ack": 713,
      "ĠV": 714,
      "Ġwork": 715,
      "Ġtyp": 716,
      "Ġtwo": 717,
      "Ġoper": 718,
      "ark": 719,
      "fter": 720,
      "000": 721,
      "cc": 722,
      "Ġwe": 723,
      "ice": 724,
      "ings": 725,
      "ural": 726,
      "Ġbu": 727,
      "ased": 728,
      "ility": 729,
      "Ġproduction": 730,
      "ever": 731,
      "Ġrec": 732,
      "Ġthese": 733,
      "Ġsmall": 734,
      "Ġfe": 735,
      "tern": 736,
      "Ġact": 737,
      "Ġloc": 738,
      "gen": 739,
      "de": 740,
      "rit": 741,
      "Ġcommon": 742,
      "gy": 743,
      "ĠWh": 744,
      "Ġbla": 745,
      "oth": 746,
      "Ġdec": 747,
      "Ġtemperature": 748,
      "Ġam": 749,
      "Ġcharcoal": 750,
      "ove": 751,
      "Ġyear": 752,
      "gan": 753,
      "Ġsy": 754,
      "aw": 755,
      "ween": 756,
      "Ġob": 757,
      "Ġcall": 758,
      "Ġplant": 759,
      "ne": 760,
      "ustr": 761,
      "Ġfirst": 762,
      "Ġbl": 763,
      "ular": 764,
      "Ġcor": 765,
      "Ġmethod": 766,
      "ted": 767,
      "ps": 768,
      "form": 769,
      "Ġlow": 770,
      "Ġsha": 771,
      "ĠAl": 772,
      "rans": 773,
      "Ġbetween": 774,
      "Ġthere": 775,
      "Ġsub": 776,
      "Ġconc": 777,
      "Ġincre": 778,
      "Ġlead": 779,
      "Ġpol": 780,
      "Ġtools": 781,
      "Ġknown": 782,
      "li": 783,
      "Ġcopper": 784,
      "Ġhand": 785,
      "Ġvari": 786,
      "Ġdist": 787,
      "ause": 788,
      "Ġonly": 789,
      "ational": 790,
      "Ġmany": 791,
      "hes": 792,
      "ĠAs": 793,
      "land": 794,
      "Ġcast": 795,
      "Ġsw": 796,
      "Ġsurf": 797,
      "ides": 798,
      "owever": 799,
      "Ġ4": 800,
      "Ġgener": 801,
      "Ġore": 802,
      "Ġhard": 803,
      "rib": 804,
      "Ġinv": 805,
      "Ġduring": 806,
      "Ġusing": 807,
      "ible": 808,
      "ized": 809,
      "Ġsil": 810,
      "Ġrequ": 811,
      "Ġtrans": 812,
      "viron": 813,
      "ins": 814,
      "Ġsol": 815,
      "ject": 816,
      "Ġthen": 817,
      "ined": 818,
      "Ġfire": 819,
      "Ġlong": 820,
      "ines": 821,
      "ans": 822,
      "Ġmill": 823,
      "Ġdr": 824,
      "oss": 825,
      "eld": 826,
      "Ġcentury": 827,
      "Ġcre": 828,
      "io": 829,
      "Ġlarge": 830,
      "Ġthem": 831,
      "ov": 832,
      "Ġpot": 833,
      "ĠFor": 834,
      "ĠCom": 835,
      "Ġtime": 836,
      "Ġall": 837,
      "Â°": 838,
      "Ġconst": 839,
      "Ġmod": 840,
      "Ġwell": 841,
      "Ġpartic": 842,
      "ures": 843,
      "lag": 844,
      "Ġass": 845,
      "ife": 846,
      "hem": 847,
      "Ġgre": 848,
      "aces": 849,
      "Ġocc": 850,
      "ange": 851,
      "stem": 852,
      "ĠUn": 853,
      "Ġmaterials": 854,
      "uch": 855,
      "Ġsign": 856,
      "Ġoff": 857,
      "Ġprov": 858,
      "Ġminer": 859,
      "ram": 860,
      "Ġbeing": 861,
      "ĠThese": 862,
      "oint": 863,
      "iss": 864,
      "ĠAn": 865,
      "Ġrel": 866,
      "ative": 867,
      "ially": 868,
      "Ġincluding": 869,
      "cing": 870,
      "Ġph": 871,
      "wood": 872,
      "omet": 873,
      "ize": 874,
      "Ġelect": 875,
      "ases": 876,
      "erv": 877,
      "ale": 878,
      "Ġdiffere": 879,
      "Ġem": 880,
      "Ġenviron": 881,
      "ution": 882,
      "ered": 883,
      "led": 884,
      "ology": 885,
      "Ġair": 886,
      "Ġpe": 887,
      "Ġno": 888,
      "Ġexamp": 889,
      "tain": 890,
      "Ġ5": 891,
      "ok": 892,
      "Ġpres": 893,
      "ets": 894,
      "yd": 895,
      "Ġcut": 896,
      "Ġdo": 897,
      "uro": 898,
      "Ġwill": 899,
      "Ġsurface": 900,
      "Ġfin": 901,
      "pend": 902,
      "ling": 903,
      "Ġacc": 904,
      "Ġafter": 905,
      "Ġstr": 906,
      "pen": 907,
      "Ġusually": 908,
      "Ġproduct": 909,
      "Ġcalled": 910,
      "Ġvery": 911,
      "Ġli": 912,
      "Ġstone": 913,
      "Ġsupp": 914,
      "way": 915,
      "Ġpla": 916,
      "ives": 917,
      "hen": 918,
      "umber": 919,
      "fore": 920,
      "Ġsword": 921,
      "Ġspecies": 922,
      "Ġlim": 923,
      "Ġwould": 924,
      "ired": 925,
      "ily": 926,
      "Ġcontain": 927,
      "Ġproduced": 928,
      "ryst": 929,
      "Ġkil": 930,
      "Ġyears": 931,
      "urope": 932,
      "ĠWhat": 933,
      "Ġcap": 934,
      "Ġax": 935,
      "Ġdesign": 936,
      "ual": 937,
      "ĠEurope": 938,
      "ism": 939,
      "Ġwhile": 940,
      "let": 941,
      "arm": 942,
      "Ġallow": 943,
      "Ġbo": 944,
      "meric": 945,
      "ts": 946,
      "Ġ6": 947,
      "ival": 948,
      "Ġeffect": 949,
      "wn": 950,
      "ively": 951,
      "Ġresult": 952,
      "ĠHowever": 953,
      "ather": 954,
      "Ġless": 955,
      "wor": 956,
      "Ġhun": 957,
      "tle": 958,
      "Ġinst": 959,
      "ars": 960,
      "Ġstruct": 961,
      "ĠDe": 962,
      "ix": 963,
      "Ġboth": 964,
      "ists": 965,
      "ards": 966,
      "Ġenvironment": 967,
      "ene": 968,
      "Ġallo": 969,
      "oci": 970,
      "Ġearly": 971,
      "ished": 972,
      "inc": 973,
      "ery": 974,
      "ĠAmeric": 975,
      "ĠÂ°": 976,
      "Ġaround": 977,
      "ulf": 978,
      "Ġsystem": 979,
      "Ġdifferent": 980,
      "Ġ201": 981,
      "ae": 982,
      "Ġdef": 983,
      "ock": 984,
      "ield": 985,
      "ness": 986,
      "ĠâĢĵ": 987,
      "Ġimport": 988,
      "fact": 989,
      "ince": 990,
      "Ġmetals": 991,
      "Ġactiv": 992,
      "ise": 993,
      "rol": 994,
      "Ġinclude": 995,
      "Ġoccur": 996,
      "ics": 997,
      "els": 998,
      "Ġarea": 999,
      "iod": 1000,
      "Ġdire": 1001,
      "mb": 1002,
      "vent": 1003,
      "rosion": 1004,
      "Ġpur": 1005,
      "und": 1006,
      "Ġed": 1007,
      "Ġart": 1008,
      "Ġremain": 1009,
      "Ġshe": 1010,
      "ites": 1011,
      "ollow": 1012,
      "ĠNor": 1013,
      "Ġdue": 1014,
      "Ġtrees": 1015,
      "entr": 1016,
      "Ġhis": 1017,
      "Ġstud": 1018,
      "ological": 1019,
      "Ġtechniqu": 1020,
      "Ġinter": 1021,
      "Ġend": 1022,
      "imil": 1023,
      "rop": 1024,
      "ĠAr": 1025,
      "Ġexample": 1026,
      "ĠInd": 1027,
      "cy": 1028,
      "Ġgrow": 1029,
      "ĠThey": 1030,
      "Ġav": 1031,
      "Ġcould": 1032,
      "ĠNe": 1033,
      "Ġneed": 1034,
      "ross": 1035,
      "Ġz": 1036,
      "Ġmon": 1037,
      "Ġmain": 1038,
      "Ġbuild": 1039,
      "ging": 1040,
      "Ġnew": 1041,
      "rodu": 1042,
      "Ġgo": 1043,
      "allur": 1044,
      "Ġprocesses": 1045,
      "ath": 1046,
      "Ġbecause": 1047,
      "Ġwho": 1048,
      "{\\": 1049,
      "Ġequ": 1050,
      "Ġdepos": 1051,
      "hemical": 1052,
      "ruction": 1053,
      "50": 1054,
      "Ġslag": 1055,
      "Ġsmelting": 1056,
      "ole": 1057,
      "Ġdet": 1058,
      "Ġtype": 1059,
      "Ġblast": 1060,
      "ott": 1061,
      "ful": 1062,
      "ĠThere": 1063,
      "outh": 1064,
      "gn": 1065,
      "ze": 1066,
      "pert": 1067,
      "Ġlarg": 1068,
      "Ġet": 1069,
      "ilt": 1070,
      "Ġ200": 1071,
      "Ġheat": 1072,
      "Ġnat": 1073,
      "ble": 1074,
      "Ġgas": 1075,
      "igin": 1076,
      "Ġstre": 1077,
      "Ġmake": 1078,
      "Ġproduce": 1079,
      "ĠUnited": 1080,
      "af": 1081,
      "ety": 1082,
      "Ġshaft": 1083,
      "other": 1084,
      "Ġtree": 1085,
      "Ġsite": 1086,
      "ufact": 1087,
      "ustry": 1088,
      "ygen": 1089,
      "cks": 1090,
      "ning": 1091,
      "ĠRe": 1092,
      "ization": 1093,
      "SA": 1094,
      "Ġcontin": 1095,
      "Ġany": 1096,
      "Ġ9": 1097,
      "Ġadd": 1098,
      "ges": 1099,
      "Ġest": 1100,
      "Ġsulf": 1101,
      "imes": 1102,
      "Ġbel": 1103,
      "vival": 1104,
      "Ġopen": 1105,
      "chan": 1106,
      "Ġcer": 1107,
      "Ġcount": 1108,
      "Ġfollow": 1109,
      "Ġpow": 1110,
      "par": 1111,
      "ond": 1112,
      "ves": 1113,
      "Ġmuch": 1114,
      "uel": 1115,
      "Ġcomb": 1116,
      "Ġatt": 1117,
      "Ġsoil": 1118,
      "Ġland": 1119,
      "Ġlike": 1120,
      "Ġsl": 1121,
      "Ġpract": 1122,
      "Ġpop": 1123,
      "umin": 1124,
      "Ġcommun": 1125,
      "Ġconsid": 1126,
      "Ġhum": 1127,
      "Ġindustry": 1128,
      "ones": 1129,
      "ivers": 1130,
      "Ġmanufact": 1131,
      "ctions": 1132,
      "Ġoxygen": 1133,
      "ged": 1134,
      "Ġstill": 1135,
      "ified": 1136,
      "Ġfurnaces": 1137,
      "Ġtradition": 1138,
      "Ġterm": 1139,
      "Ġele": 1140,
      "Ġprote": 1141,
      "Ġorgan": 1142,
      "imilar": 1143,
      "Ġarch": 1144,
      "Ġhyd": 1145,
      "Ġcompany": 1146,
      "ob": 1147,
      "ĠBC": 1148,
      "Ġback": 1149,
      "Ġconcentr": 1150,
      "ake": 1151,
      "ering": 1152,
      "Ġpoint": 1153,
      "cted": 1154,
      "ident": 1155,
      "Ġeng": 1156,
      "Ġperiod": 1157,
      "til": 1158,
      "Ġsame": 1159,
      "Ġfla": 1160,
      "Ġthree": 1161,
      "ĠHe": 1162,
      "Ġsk": 1163,
      "Ġlay": 1164,
      "conom": 1165,
      "Ġmillion": 1166,
      "han": 1167,
      "Ġfer": 1168,
      "Ġtr": 1169,
      "Ġmic": 1170,
      "roly": 1171,
      "Ġear": 1172,
      "Ġgr": 1173,
      "Ġorigin": 1174,
      "Ġdeveloped": 1175,
      "Ġap": 1176,
      "Ġmechan": 1177,
      "Ġham": 1178,
      "ĠSome": 1179,
      "Ġcontrol": 1180,
      "Ġworld": 1181,
      "mon": 1182,
      "Ġ0": 1183,
      "Ġinte": 1184,
      "ability": 1185,
      "Ġnear": 1186,
      "ĠCon": 1187,
      "acter": 1188,
      "get": 1189,
      "ious": 1190,
      "nce": 1191,
      "Ġret": 1192,
      "ters": 1193,
      "Ġpress": 1194,
      "ĠCor": 1195,
      "Ġstand": 1196,
      "though": 1197,
      "cond": 1198,
      "ri": 1199,
      "}}": 1200,
      "Ġsize": 1201,
      "ĠLe": 1202,
      "gg": 1203,
      "ving": 1204,
      "ash": 1205,
      "Ġcondition": 1206,
      "Ġground": 1207,
      "osition": 1208,
      "Ġmagn": 1209,
      "ometimes": 1210,
      "hip": 1211,
      "Ġown": 1212,
      "Ġdown": 1213,
      "cept": 1214,
      "ĠAustr": 1215,
      "ĠEng": 1216,
      "Ġset": 1217,
      "Ġinf": 1218,
      "arch": 1219,
      "Ġanim": 1220,
      "istory": 1221,
      "Ġins": 1222,
      "raft": 1223,
      "âĢĶ": 1224,
      "Ġnatural": 1225,
      "ma": 1226,
      "Ġbr": 1227,
      "lex": 1228,
      "rac": 1229,
      "Ġimportant": 1230,
      "Ġsour": 1231,
      "Ġmine": 1232,
      "20": 1233,
      "Ġtypically": 1234,
      "che": 1235,
      "der": 1236,
      "Ġchemical": 1237,
      "Ġent": 1238,
      "Ġif": 1239,
      "Ġhig": 1240,
      "ately": 1241,
      "Ġwithin": 1242,
      "Ġmodern": 1243,
      "Ġcur": 1244,
      "Ġeas": 1245,
      "Ġdrill": 1246,
      "Ġpropert": 1247,
      "Ġprim": 1248,
      "des": 1249,
      "ergy": 1250,
      "Ġsever": 1251,
      "ared": 1252,
      "oking": 1253,
      "Ġlater": 1254,
      "Ġappro": 1255,
      "Ġ7": 1256,
      "Ġ8": 1257,
      "Ġsimilar": 1258,
      "Ġfood": 1259,
      "ĠAt": 1260,
      "Ġcoal": 1261,
      "Ġapplic": 1262,
      "Ġpeop": 1263,
      "\".": 1264,
      "Ġcamp": 1265,
      "Ġpie": 1266,
      "Ġtypes": 1267,
      "Ġsignific": 1268,
      "vered": 1269,
      "Ġlocal": 1270,
      "rystall": 1271,
      "Ġdep": 1272,
      "Ġcle": 1273,
      "Ġposs": 1274,
      "Ġmaking": 1275,
      "Ġadv": 1276,
      "Ġseveral": 1277,
      "Ġcorrosion": 1278,
      "Ġsolid": 1279,
      "ĠComp": 1280,
      "ior": 1281,
      "kes": 1282,
      "Ġfact": 1283,
      "ential": 1284,
      "raction": 1285,
      "Ġbefore": 1286,
      "iment": 1287,
      "Ġcost": 1288,
      "ĠStates": 1289,
      "Ġ'": 1290,
      "Ġcaus": 1291,
      "Ġexper": 1292,
      "Ġvarious": 1293,
      "ox": 1294,
      "urther": 1295,
      "Ġgold": 1296,
      "Ġlevel": 1297,
      "ishing": 1298,
      "Ġconstruction": 1299,
      "osed": 1300,
      "Ġcasting": 1301,
      "Ã©": 1302,
      "Ġmar": 1303,
      "ithic": 1304,
      "Ġcult": 1305,
      "Ġbas": 1306,
      "ised": 1307,
      "rought": 1308,
      "up": 1309,
      "of": 1310,
      "ute": 1311,
      "yl": 1312,
      "Ġold": 1313,
      "Ġsince": 1314,
      "Ġfuel": 1315,
      "Ġeconom": 1316,
      "Ġgrou": 1317,
      "ĠAf": 1318,
      "Ġareas": 1319,
      "Ġuntil": 1320,
      "Ġmethods": 1321,
      "Ġinvol": 1322,
      "Ġhunting": 1323,
      "ĠAustral": 1324,
      "ug": 1325,
      "Ġway": 1326,
      "Ġthose": 1327,
      "vern": 1328,
      "ries": 1329,
      "Ġmed": 1330,
      "Ġpat": 1331,
      "Ġnumber": 1332,
      "istor": 1333,
      "Ġdirect": 1334,
      "erc": 1335,
      "Ġlit": 1336,
      "Ġprec": 1337,
      "ina": 1338,
      "ently": 1339,
      "ickel": 1340,
      "Ġmust": 1341,
      "ĠSw": 1342,
      "Ġproducts": 1343,
      "read": 1344,
      "Ġappe": 1345,
      "Ġsignificant": 1346,
      "reat": 1347,
      "Ġeven": 1348,
      "Ġblade": 1349,
      "ave": 1350,
      "Ġsaw": 1351,
      "Ġpig": 1352,
      "Ġrese": 1353,
      "allurgy": 1354,
      "Ġes": 1355,
      "Ġenergy": 1356,
      "Ġcontent": 1357,
      "Ġstreng": 1358,
      "lass": 1359,
      "Ġsometimes": 1360,
      "Ġfun": 1361,
      "Ġmel": 1362,
      "ush": 1363,
      "Ġeach": 1364,
      "ows": 1365,
      "formation": 1366,
      "port": 1367,
      "tem": 1368,
      "Ġassoci": 1369,
      "Ġconditions": 1370,
      "oid": 1371,
      "yc": 1372,
      "ots": 1373,
      "ants": 1374,
      "Ġcool": 1375,
      "ĠChar": 1376,
      "xim": 1377,
      "amb": 1378,
      "Ġ10": 1379,
      "Ġke": 1380,
      "ĠAfric": 1381,
      "eng": 1382,
      "iven": 1383,
      "Ġoxide": 1384,
      "Ġreport": 1385,
      "uc": 1386,
      "rent": 1387,
      "tery": 1388,
      "Ġminerals": 1389,
      "Ġsupport": 1390,
      "Ġbod": 1391,
      "ĠIron": 1392,
      "Ġmineral": 1393,
      "man": 1394,
      "ived": 1395,
      "Ġtreat": 1396,
      "Ġamount": 1397,
      "Ġavail": 1398,
      "Ġpeople": 1399,
      "cient": 1400,
      "mel": 1401,
      "Ġhammer": 1402,
      "ires": 1403,
      "nam": 1404,
      "Ġdepend": 1405,
      "ĠWor": 1406,
      "Ġimpro": 1407,
      "Ġagain": 1408,
      "Ġlo": 1409,
      "Ġlight": 1410,
      "hern": 1411,
      "ither": 1412,
      "ilit": 1413,
      "iam": 1414,
      "ool": 1415,
      "Ġsand": 1416,
      "Ġalong": 1417,
      "Ġobject": 1418,
      "Ġenvironmental": 1419,
      "Ġproperties": 1420,
      "Ġval": 1421,
      "Ġgrain": 1422,
      "Ġcontinu": 1423,
      "me": 1424,
      "Ġrange": 1425,
      "Ġ199": 1426,
      "19": 1427,
      "ality": 1428,
      "Ġpub": 1429,
      "oun": 1430,
      "Ġreduction": 1431,
      "ĠNorth": 1432,
      "Ġmanufacture": 1433,
      "ren": 1434,
      "Ġ17": 1435,
      "fer": 1436,
      "Ġthough": 1437,
      "ĠPro": 1438,
      "Ġsecond": 1439,
      "Ġshape": 1440,
      "oration": 1441,
      "Ġdra": 1442,
      "ulation": 1443,
      "ĠBrit": 1444,
      "Ġregion": 1445,
      "Ġgenerally": 1446,
      "Ġarchae": 1447,
      "ring": 1448,
      "Ġred": 1449,
      "Ġhigher": 1450,
      "lect": 1451,
      "Ġindustr": 1452,
      "Ġnon": 1453,
      "Ġtemperatures": 1454,
      "ier": 1455,
      "ty": 1456,
      "Ġbro": 1457,
      "Ġtop": 1458,
      "ĠRes": 1459,
      "Ġforms": 1460,
      "sc": 1461,
      "uss": 1462,
      "ĠWhen": 1463,
      "Ġmines": 1464,
      "ification": 1465,
      "\",": 1466,
      "Ġ+": 1467,
      "elf": 1468,
      "Ġaddition": 1469,
      "Ġsoft": 1470,
      "Ġrequired": 1471,
      "jor": 1472,
      "idd": 1473,
      "Ġwithout": 1474,
      "Ġbecame": 1475,
      "Ġsilic": 1476,
      "Ġsilver": 1477,
      "Ġstructure": 1478,
      "asing": 1479,
      "Ġengine": 1480,
      "ec": 1481,
      "ĠCar": 1482,
      "Ġdevelopment": 1483,
      "Ġtechniques": 1484,
      "ĠZ": 1485,
      "Ġburn": 1486,
      "ict": 1487,
      "ils": 1488,
      "ided": 1489,
      "ĠCo": 1490,
      "Ġdeep": 1491,
      "Ġcommonly": 1492,
      "Ġstrength": 1493,
      "crib": 1494,
      "pent": 1495,
      "sis": 1496,
      "ven": 1497,
      "ĠY": 1498,
      "nded": 1499,
      "Ġalumin": 1500,
      "iquid": 1501,
      "gra": 1502,
      "Ġcour": 1503,
      "ese": 1504,
      "ices": 1505,
      "Ġgu": 1506,
      "Ġrock": 1507,
      "Ġspecial": 1508,
      "Ġcell": 1509,
      "iving": 1510,
      "ĠMet": 1511,
      "ffic": 1512,
      "Ġclass": 1513,
      "by": 1514,
      "ner": 1515,
      "ule": 1516,
      "vers": 1517,
      "Ġwaste": 1518,
      "ĠOther": 1519,
      "Ġresist": 1520,
      "Ġalloy": 1521,
      "air": 1522,
      "Ġbased": 1523,
      "iver": 1524,
      "ĠGerm": 1525,
      "Ġkiln": 1526,
      "ink": 1527,
      "Ġsites": 1528,
      "Ġfurther": 1529,
      "chre": 1530,
      "char": 1531,
      "Ġstra": 1532,
      "lished": 1533,
      "Ġmat": 1534,
      "Ġtimes": 1535,
      "Ġ202": 1536,
      "yle": 1537,
      "Ġwid": 1538,
      "Ġvol": 1539,
      "ĠUS": 1540,
      "Ġprovide": 1541,
      "pect": 1542,
      "idence": 1543,
      "Ġstate": 1544,
      "aper": 1545,
      "ches": 1546,
      "the": 1547,
      "tic": 1548,
      "Ġmark": 1549,
      "Ġpers": 1550,
      "ull": 1551,
      "Ġabove": 1552,
      "Ġlower": 1553,
      "Ġge": 1554,
      "Ġuses": 1555,
      "Ġpurpos": 1556,
      "iner": 1557,
      "alc": 1558,
      "Ġknife": 1559,
      "Ġforestry": 1560,
      "au": 1561,
      "ination": 1562,
      "Ġ15": 1563,
      "ĠForest": 1564,
      "Ġ198": 1565,
      "ages": 1566,
      "10": 1567,
      "Ġday": 1568,
      "rolysis": 1569,
      "lied": 1570,
      "Ġsimp": 1571,
      "Ġstart": 1572,
      "Ġ197": 1573,
      "..": 1574,
      "ris": 1575,
      "agement": 1576,
      "lage": 1577,
      "ration": 1578,
      "Ġpy": 1579,
      "Ġeither": 1580,
      "avy": 1581,
      "Ġtraining": 1582,
      "Ġser": 1583,
      "Ġflow": 1584,
      "Ġhot": 1585,
      "eter": 1586,
      "Ġthick": 1587,
      "Ġhel": 1588,
      "Ġforests": 1589,
      "Ġpresent": 1590,
      "ĠNew": 1591,
      "Ġavailable": 1592,
      "Ġstress": 1593,
      "Ġplants": 1594,
      "ĠAmerican": 1595,
      "ĠAfrica": 1596,
      "Ġliquid": 1597,
      "Ġtons": 1598,
      "Ġcharacter": 1599,
      "Ġedge": 1600,
      "Ġwall": 1601,
      "ird": 1602,
      "ĠOld": 1603,
      ".\"": 1604,
      "Ġbuilt": 1605,
      "gram": 1606,
      "ipp": 1607,
      "ann": 1608,
      "Ġrea": 1609,
      "Ġsugg": 1610,
      "Ġris": 1611,
      "Ġresour": 1612,
      "pecially": 1613,
      "Ġcutting": 1614,
      "Ġstrong": 1615,
      "to": 1616,
      "ues": 1617,
      "here": 1618,
      "Ġsing": 1619,
      "aster": 1620,
      "ode": 1621,
      "ably": 1622,
      "Ġmajor": 1623,
      "ĠEx": 1624,
      "Ġflint": 1625,
      "ission": 1626,
      "ras": 1627,
      "atively": 1628,
      "alt": 1629,
      "ĠAb": 1630,
      "ĠSp": 1631,
      "ĠMining": 1632,
      "Ġsepar": 1633,
      "aves": 1634,
      "cent": 1635,
      "ware": 1636,
      "ĠWar": 1637,
      "Ġformed": 1638,
      "Ġoxid": 1639,
      "Ġalloys": 1640,
      "ex": 1641,
      "Ġpain": 1642,
      "Ġdescrib": 1643,
      "Ġoperations": 1644,
      "Ġweap": 1645,
      "Ġaxes": 1646,
      "lish": 1647,
      "Ġfac": 1648,
      "Ġpass": 1649,
      "ĠCl": 1650,
      "ms": 1651,
      "ĠCan": 1652,
      "abin": 1653,
      "Ġtimber": 1654,
      "Ġbecome": 1655,
      "work": 1656,
      "Ġdeposits": 1657,
      "Ġmagnet": 1658,
      "Ġtest": 1659,
      "ules": 1660,
      "Ġsurvival": 1661,
      "Ġshel": 1662,
      "Ġbuilding": 1663,
      "gin": 1664,
      "sor": 1665,
      "Ġpar": 1666,
      "Ġacid": 1667,
      "Ġrepla": 1668,
      "Ġsuggest": 1669,
      "30": 1670,
      "ien": 1671,
      "Ġaut": 1672,
      "atory": 1673,
      "ional": 1674,
      "icult": 1675,
      "ularly": 1676,
      "Ġsuc": 1677,
      "allic": 1678,
      "Ġindic": 1679,
      "Ġhuman": 1680,
      "lu": 1681,
      "Ġâ": 1682,
      "Ġim": 1683,
      "Ġ{\\": 1684,
      "ĠIs": 1685,
      "Ġanal": 1686,
      "met": 1687,
      "app": 1688,
      "Ġnickel": 1689,
      "ĠFe": 1690,
      "Ġassociated": 1691,
      "omin": 1692,
      "Ġcomplet": 1693,
      "Ġclim": 1694,
      "Ġtechnology": 1695,
      "ĠSe": 1696,
      "ores": 1697,
      "Ġrequire": 1698,
      "oved": 1699,
      "Ġbi": 1700,
      "Ġshap": 1701,
      "Ġrate": 1702,
      "Ġgovern": 1703,
      "Ġcountries": 1704,
      "Ġsingle": 1705,
      "ouse": 1706,
      "Ġrest": 1707,
      "Ġincrease": 1708,
      "rest": 1709,
      "ank": 1710,
      "ĠAd": 1711,
      "covered": 1712,
      "Ġspecific": 1713,
      "Ġsubst": 1714,
      "Ġgrowth": 1715,
      "Ġelements": 1716,
      "Ġcr": 1717,
      "Ġcat": 1718,
      "Ġside": 1719,
      "Ġbegan": 1720,
      "ĠSouth": 1721,
      "Ġamong": 1722,
      "Ġespecially": 1723,
      "por": 1724,
      "orph": 1725,
      "Ġdry": 1726,
      "Ġlife": 1727,
      "ĠChina": 1728,
      "Ġoperation": 1729,
      "ax": 1730,
      "Ġaff": 1731,
      "Ġochre": 1732,
      "Ġinit": 1733,
      "Ġ16": 1734,
      "Ġmach": 1735,
      "Ġshould": 1736,
      "loy": 1737,
      "Ġprevent": 1738,
      "Ġremov": 1739,
      "Ġdoes": 1740,
      "med": 1741,
      "oor": 1742,
      "Ġpred": 1743,
      "arth": 1744,
      "stone": 1745,
      "Ġexist": 1746,
      "Ġplace": 1747,
      "Ġlarger": 1748,
      "Ġflo": 1749,
      "Ġbre": 1750,
      "raph": 1751,
      "ulations": 1752,
      "ensive": 1753,
      "Ġreduce": 1754,
      "Ġmass": 1755,
      "Ġlate": 1756,
      "ĠBy": 1757,
      "ternational": 1758,
      "Ġaxe": 1759,
      "ength": 1760,
      "ĠWorld": 1761,
      "Ġfram": 1762,
      "estern": 1763,
      "ĠOn": 1764,
      "Ġdisc": 1765,
      "Ġconsist": 1766,
      "Ġearli": 1767,
      "Ġagainst": 1768,
      "be": 1769,
      "Ġident": 1770,
      "Ġtar": 1771,
      "atic": 1772,
      "Ġfib": 1773,
      "ane": 1774,
      "Ġconver": 1775,
      "Ġmeters": 1776,
      "Ġparts": 1777,
      "Ġextraction": 1778,
      "Ġexpl": 1779,
      "Ġswords": 1780,
      "Ġzinc": 1781,
      "rm": 1782,
      "Ġbott": 1783,
      "Ġmanagement": 1784,
      "Ġpower": 1785,
      "Ġsuccess": 1786,
      "itable": 1787,
      "ĠISA": 1788,
      "amou": 1789,
      "astic": 1790,
      "Ġemp": 1791,
      "Ġhydro": 1792,
      "Ġsource": 1793,
      "ĠCompany": 1794,
      "craft": 1795,
      "alk": 1796,
      "orn": 1797,
      "Ġdam": 1798,
      "Ġshort": 1799,
      "Ġacross": 1800,
      "ption": 1801,
      "Ġsmelter": 1802,
      "amouf": 1803,
      "SM": 1804,
      "ills": 1805,
      "Ġexc": 1806,
      "Ġresults": 1807,
      "mith": 1808,
      "Ġrefer": 1809,
      "Ġpossible": 1810,
      "tal": 1811,
      "yp": 1812,
      "ator": 1813,
      "Ġmult": 1814,
      "Ġevidence": 1815,
      "iversity": 1816,
      "Ġmicro": 1817,
      "ching": 1818,
      "ĠWood": 1819,
      "Ġshow": 1820,
      "ording": 1821,
      "Ġraw": 1822,
      "Ġeffic": 1823,
      "Ġtraditional": 1824,
      "Ġbody": 1825,
      "ilitary": 1826,
      "sh": 1827,
      "Ġfour": 1828,
      "Ġmix": 1829,
      "Ġbar": 1830,
      "Ġconsidered": 1831,
      "ĠCharcoal": 1832,
      "val": 1833,
      "Ġbur": 1834,
      "Ġsea": 1835,
      "ograph": 1836,
      "Ġimpact": 1837,
      "Ġstudy": 1838,
      "for": 1839,
      "Ġsaf": 1840,
      "Ġnow": 1841,
      "Ġmeas": 1842,
      "ached": 1843,
      "apan": 1844,
      "Ġresp": 1845,
      "Ġsystems": 1846,
      "Ġpressure": 1847,
      "play": 1848,
      "Ġores": 1849,
      "rap": 1850,
      "Ġmaint": 1851,
      "Ġvis": 1852,
      "Ġformation": 1853,
      "Ġestab": 1854,
      "Ġmi": 1855,
      "ason": 1856,
      "Ġec": 1857,
      "ify": 1858,
      "Ġcooking": 1859,
      "Ġnecess": 1860,
      "Ġapplied": 1861,
      "ĠEuropean": 1862,
      "Ġanimals": 1863,
      "ER": 1864,
      "iet": 1865,
      "arily": 1866,
      "Ġglass": 1867,
      "irc": 1868,
      "Ġ12": 1869,
      "ĠAustralia": 1870,
      "Ġcase": 1871,
      "Ġfine": 1872,
      "Ġanother": 1873,
      "Ġintrodu": 1874,
      "Ġpotential": 1875,
      "Ġve": 1876,
      "ĠQu": 1877,
      "Ġmold": 1878,
      "itu": 1879,
      "Ġbase": 1880,
      "Ġbene": 1881,
      "ime": 1882,
      "xture": 1883,
      "Ġant": 1884,
      "Ġcommerc": 1885,
      "ĠJapan": 1886,
      "Ġincreasing": 1887,
      "hanol": 1888,
      "att": 1889,
      "ĠSh": 1890,
      "anded": 1891,
      "Ġpottery": 1892,
      "Ġlayer": 1893,
      "Ġtent": 1894,
      "alth": 1895,
      "olithic": 1896,
      "ung": 1897,
      "opy": 1898,
      "Ġchange": 1899,
      "Ġobtain": 1900,
      "Ġmechanism": 1901,
      "ivid": 1902,
      "ĠMany": 1903,
      "ysis": 1904,
      "ervation": 1905,
      "Ġcertain": 1906,
      "iddle": 1907,
      "ward": 1908,
      "Ġwar": 1909,
      "ances": 1910,
      "Ġancient": 1911,
      "Ġrather": 1912,
      "Ġcompon": 1913,
      "Ġcurrent": 1914,
      "Ġtreatment": 1915,
      "ral": 1916,
      "sol": 1917,
      "Ġwind": 1918,
      "Ġhow": 1919,
      "Ġshar": 1920,
      "ĠOne": 1921,
      "Ġparticularly": 1922,
      "Ġhelp": 1923,
      "cue": 1924,
      "Ġhowever": 1925,
      "ĠEl": 1926,
      "Ġfew": 1927,
      "ision": 1928,
      "Ġlength": 1929,
      "ĠFran": 1930,
      "ips": 1931,
      "loom": 1932,
      "Ġvariety": 1933,
      "ribut": 1934,
      "ĠAmerica": 1935,
      "Ġfollowing": 1936,
      "aid": 1937,
      "ense": 1938,
      "Ġmol": 1939,
      "Ġforging": 1940,
      "Ġang": 1941,
      "Ġdifficult": 1942,
      "Ġgreat": 1943,
      "Ġtechnique": 1944,
      "Ġapplications": 1945,
      "less": 1946,
      "eds": 1947,
      "Ġfield": 1948,
      "Ġdel": 1949,
      "Ġname": 1950,
      "ĠCO": 1951,
      "Ġalthough": 1952,
      "sequ": 1953,
      "Ġgreen": 1954,
      "Ġindustrial": 1955,
      "oot": 1956,
      "ert": 1957,
      "rous": 1958,
      "Ġdiam": 1959,
      "ention": 1960,
      "Ġthin": 1961,
      "iple": 1962,
      "Ġoccurs": 1963,
      "most": 1964,
      "Ġcryst": 1965,
      "Ġcalc": 1966,
      "Ġconf": 1967,
      "lement": 1968,
      "ĠCal": 1969,
      "Ġ196": 1970,
      "ronze": 1971,
      "Ġelectric": 1972,
      "Ġbelow": 1973,
      "amouflage": 1974,
      "ats": 1975,
      "Ġfil": 1976,
      "ĠAct": 1977,
      "Ġdem": 1978,
      "ipment": 1979,
      "rown": 1980,
      "Ġstandard": 1981,
      "ection": 1982,
      "Ġbound": 1983,
      "Ġtoget": 1984,
      "chie": 1985,
      "Ġgood": 1986,
      "ĠAfter": 1987,
      "Ġchang": 1988,
      "Ġdesigned": 1989,
      "Ġsulfur": 1990,
      "Ġtogether": 1991,
      "ĠÎ": 1992,
      "Ġfam": 1993,
      "ected": 1994,
      "Ġlocated": 1995,
      "40": 1996,
      "cher": 1997,
      "Ġcondu": 1998,
      "ĠIf": 1999,
      "ateg": 2000,
      "illed": 2001,
      "Ġproducing": 2002,
      "izes": 2003,
      "Ġperform": 2004,
      "Ġflu": 2005,
      "Ġquality": 2006,
      "Ġpriv": 2007,
      "Ġextract": 2008,
      "Ġremains": 2009,
      "18": 2010,
      "day": 2011,
      "ĠTra": 2012,
      "ĠSmel": 2013,
      "ume": 2014,
      "Ġenough": 2015,
      "Ġreduced": 2016,
      "Ġcreate": 2017,
      "mber": 2018,
      "Ġmeans": 2019,
      "Ġsmaller": 2020,
      "Ġcapac": 2021,
      "Ġadded": 2022,
      "Ġpopular": 2023,
      "Ġcirc": 2024,
      "ĠTo": 2025,
      "Ġnature": 2026,
      "Ġproject": 2027,
      "Ġrad": 2028,
      "Ġjust": 2029,
      "Ġblades": 2030,
      "Ġbenef": 2031,
      "ah": 2032,
      "based": 2033,
      "Ġce": 2034,
      "Ġwrought": 2035,
      "iture": 2036,
      "aries": 2037,
      "iding": 2038,
      "Ġprom": 2039,
      "ĠSc": 2040,
      "ustain": 2041,
      "Ġworking": 2042,
      "ounds": 2043,
      "Ġethanol": 2044,
      "gal": 2045,
      "Ġachie": 2046,
      "onn": 2047,
      "Ġmm": 2048,
      "Ġmilitary": 2049,
      "Ġbeh": 2050,
      "abor": 2051,
      "Ġhead": 2052,
      "Ġcomposition": 2053,
      "Ġreducing": 2054,
      "Ġgreater": 2055,
      "ience": 2056,
      "ried": 2057,
      "Ġer": 2058,
      "Ġbio": 2059,
      "ights": 2060,
      "Ġinvest": 2061,
      "Ġtransport": 2062,
      "ded": 2063,
      "Ġtak": 2064,
      "reg": 2065,
      "Ġtherm": 2066,
      "Ġche": 2067,
      "Ġport": 2068,
      "iles": 2069,
      "Ġorder": 2070,
      "osp": 2071,
      "Ġcreated": 2072,
      "rich": 2073,
      "Ġfre": 2074,
      "Ġrot": 2075,
      "Ġlimited": 2076,
      "Ġactivities": 2077,
      "Ġdeterm": 2078,
      "making": 2079,
      "Ġgroup": 2080,
      "wards": 2081,
      "Ġtents": 2082,
      "Ġmove": 2083,
      "usion": 2084,
      "Ġrele": 2085,
      "oles": 2086,
      "Ġpiece": 2087,
      "Ġbottom": 2088,
      "ĠDuring": 2089,
      "Ġcomplex": 2090,
      "ours": 2091,
      "posed": 2092,
      "Ġincreased": 2093,
      "Ġpublic": 2094,
      ".,": 2095,
      "ape": 2096,
      "Ġline": 2097,
      "Ġthus": 2098,
      "ĠNational": 2099,
      "Ġcarpent": 2100,
      "Ġoxides": 2101,
      "Ġ30": 2102,
      "Ġrelatively": 2103,
      "Ġestim": 2104,
      "Ġpractice": 2105,
      "Ġsed": 2106,
      "Ġwide": 2107,
      "oring": 2108,
      "Ġdone": 2109,
      "Ġhistory": 2110,
      "use": 2111,
      "ĠCol": 2112,
      "istic": 2113,
      "Ġremoved": 2114,
      "aching": 2115,
      "woods": 2116,
      "Ġequipment": 2117,
      "Ġlevels": 2118,
      "dis": 2119,
      "ler": 2120,
      "Ġsold": 2121,
      "Ġread": 2122,
      "ured": 2123,
      "ĠRo": 2124,
      "izing": 2125,
      "Ġenc": 2126,
      "iew": 2127,
      "Ġgeneral": 2128,
      "Ġappear": 2129,
      "Ġaluminium": 2130,
      "bo": 2131,
      "erous": 2132,
      "Ġcabin": 2133,
      "owan": 2134,
      "ĠEn": 2135,
      "lob": 2136,
      "Ġtend": 2137,
      "Ġago": 2138,
      "Ġeconomic": 2139,
      "fficient": 2140,
      "ĠOldowan": 2141,
      "Ġcapacity": 2142,
      "ground": 2143,
      "hor": 2144,
      "kely": 2145,
      "mit": 2146,
      "Ġbra": 2147,
      "Ġbloom": 2148,
      "Ġlaw": 2149,
      "ented": 2150,
      "Ġhole": 2151,
      "Ġann": 2152,
      "ĠMount": 2153,
      "Ġleast": 2154,
      "Ġleaves": 2155,
      "Ġothers": 2156,
      "ĠWhile": 2157,
      "Ġplaced": 2158,
      "cksmith": 2159,
      "Ġcommercial": 2160,
      "vil": 2161,
      "Ġlumber": 2162,
      "urb": 2163,
      "Ġabras": 2164,
      "ĠHistory": 2165,
      "ems": 2166,
      "Ġindivid": 2167,
      "ĠBritish": 2168,
      "Ġfind": 2169,
      "Ġwild": 2170,
      "Ġgiven": 2171,
      "Ġnorm": 2172,
      "ored": 2173,
      "ĠWith": 2174,
      "Ġmetallurgy": 2175,
      "aval": 2176,
      "Ġcommunity": 2177,
      "ximately": 2178,
      "Ġcrit": 2179,
      "chool": 2180,
      "Ġnam": 2181,
      "ĠAche": 2182,
      "Ġprocessing": 2183,
      "Ġprotect": 2184,
      "rench": 2185,
      "ulean": 2186,
      "EL": 2187,
      "iness": 2188,
      "ĠAge": 2189,
      "Ġworks": 2190,
      "bert": 2191,
      "Ġrap": 2192,
      "Ġphys": 2193,
      "Ġmainly": 2194,
      "Ġpieces": 2195,
      "ched": 2196,
      "side": 2197,
      "Ġserv": 2198,
      "itation": 2199,
      "Ġposition": 2200,
      "stand": 2201,
      "ulate": 2202,
      "isted": 2203,
      "erence": 2204,
      "covery": 2205,
      "Ġsurv": 2206,
      "Ġhighly": 2207,
      "Ġjoint": 2208,
      "Ġactivated": 2209,
      "ton": 2210,
      "wh": 2211,
      "ony": 2212,
      "Ġcla": 2213,
      "Ġcher": 2214,
      "Ġwear": 2215,
      "Ġhold": 2216,
      "Ġaltern": 2217,
      "Ġvess": 2218,
      "Ġhem": 2219,
      "Ġarrow": 2220,
      "Ġbetter": 2221,
      "Ġfeet": 2222,
      "like": 2223,
      "Ġallows": 2224,
      "Ġceram": 2225,
      "ĠEnglish": 2226,
      "Ġanalysis": 2227,
      "Ġemploy": 2228,
      "hib": 2229,
      "pr": 2230,
      "Ġcross": 2231,
      "ata": 2232,
      "olution": 2233,
      "Ġweight": 2234,
      "Ġfeed": 2235,
      "ĠEngland": 2236,
      "Ġut": 2237,
      "Ġpor": 2238,
      "Ġder": 2239,
      "Ġproble": 2240,
      "elling": 2241,
      "ĠFl": 2242,
      "orts": 2243,
      "Ġcontact": 2244,
      "Ġrepres": 2245,
      "Ġpoly": 2246,
      "Ġlittle": 2247,
      "Ġresistance": 2248,
      "Ġnecessary": 2249,
      "Ġslow": 2250,
      "Ġfail": 2251,
      "ened": 2252,
      "Ġtoo": 2253,
      "urvival": 2254,
      "Ġnor": 2255,
      "ĠMost": 2256,
      "ĠBra": 2257,
      "Ġwhite": 2258,
      "Ġcompared": 2259,
      "Ġresearch": 2260,
      "Ġobjects": 2261,
      "aking": 2262,
      "ik": 2263,
      "anies": 2264,
      "style": 2265,
      "imens": 2266,
      "Ġwhat": 2267,
      "Ġfurniture": 2268,
      "Ġquick": 2269,
      "Ġconsider": 2270,
      "Ġwidely": 2271,
      "Ġreaction": 2272,
      "ĠMiner": 2273,
      "ĠPh": 2274,
      "ĠGe": 2275,
      "âĢĻ": 2276,
      "Ġrocks": 2277,
      "Ġrare": 2278,
      "Ġfeature": 2279,
      "Ġblack": 2280,
      "Ġobs": 2281,
      "Ġkilns": 2282,
      "Ġeffective": 2283,
      "ERE": 2284,
      "Ġoak": 2285,
      "Ġsustain": 2286,
      "Ġft": 2287,
      "Ġfar": 2288,
      "itive": 2289,
      "Ġled": 2290,
      "osy": 2291,
      "ĠBe": 2292,
      "opp": 2293,
      "Ġinstall": 2294,
      "ĠAcheulean": 2295,
      "CO": 2296,
      "xide": 2297,
      "Ġ-": 2298,
      "nding": 2299,
      "alf": 2300,
      "Ġpaper": 2301,
      "omes": 2302,
      "outhern": 2303,
      "ruce": 2304,
      "Ġregions": 2305,
      "Ġpoll": 2306,
      "Ġprivate": 2307,
      "ĠMar": 2308,
      "Ġkind": 2309,
      "den": 2310,
      "not": 2311,
      "pro": 2312,
      "ret": 2313,
      "Ġcause": 2314,
      "Ġbegin": 2315,
      "Ġmetallic": 2316,
      "Ġcapt": 2317,
      "Ġcaused": 2318,
      "Ġearliest": 2319,
      "Ġsouth": 2320,
      "ales": 2321,
      "Ġheating": 2322,
      "Ġheavy": 2323,
      "rict": 2324,
      "Ġlikely": 2325,
      "ways": 2326,
      "Ġprimary": 2327,
      "Ġresources": 2328,
      "forest": 2329,
      "ya": 2330,
      "Ġpure": 2331,
      "Ġpine": 2332,
      "Ġlog": 2333,
      "ĠAir": 2334,
      "tered": 2335,
      "umb": 2336,
      "Ġcompanies": 2337,
      "Ġrescue": 2338,
      "working": 2339,
      "Ġmaintain": 2340,
      "70": 2341,
      "inct": 2342,
      "Ġoil": 2343,
      "atite": 2344,
      "ators": 2345,
      "Ġfishing": 2346,
      "Ġdid": 2347,
      "oman": 2348,
      "Ġnut": 2349,
      "ĠSte": 2350,
      "Ġminim": 2351,
      "Ġconsum": 2352,
      "Ġneeded": 2353,
      "Ġanimal": 2354,
      "Ġprimarily": 2355,
      "Ġadvant": 2356,
      "Ġbroad": 2357,
      "ead": 2358,
      "Ġsel": 2359,
      "Ġloss": 2360,
      "irr": 2361,
      "ĠHamb": 2362,
      "Ġ194": 2363,
      "ensity": 2364,
      "Ġparticles": 2365,
      "Ġcommunities": 2366,
      "Ġflakes": 2367,
      "line": 2368,
      "Ġess": 2369,
      "ories": 2370,
      "Ġhistor": 2371,
      "oms": 2372,
      "ley": 2373,
      "Ġplan": 2374,
      "Ġyield": 2375,
      "Ġconstruct": 2376,
      "leton": 2377,
      "Ġprotection": 2378,
      "Ġmechanical": 2379,
      "Ġgroups": 2380,
      "Ġdescribed": 2381,
      "Ġweapons": 2382,
      "Ġdiameter": 2383,
      "gu": 2384,
      "rite": 2385,
      "Ġher": 2386,
      "Ġiss": 2387,
      "ĠII": 2388,
      "Ġprof": 2389,
      "Ġ11": 2390,
      "Ġdev": 2391,
      "orthern": 2392,
      "ects": 2393,
      "Ġkeep": 2394,
      "Ġsoc": 2395,
      "ener": 2396,
      "aring": 2397,
      "Ġdy": 2398,
      "Ġprogram": 2399,
      "ĠPl": 2400,
      "Ġcover": 2401,
      "Ġyou": 2402,
      "ĠAlthough": 2403,
      "Ġapproximately": 2404,
      "Ġcellul": 2405,
      "ĠCanad": 2406,
      "Ġclimate": 2407,
      "Ġdamage": 2408,
      "car": 2409,
      "frac": 2410,
      "ote": 2411,
      "inery": 2412,
      "Ġbran": 2413,
      "ĠFrench": 2414,
      "Ġroof": 2415,
      "ricult": 2416,
      "Ġquant": 2417,
      "Ġeasily": 2418,
      "Ġclean": 2419,
      "SMEL": 2420,
      "playstyle": 2421,
      "displaystyle": 2422,
      "SMELT": 2423,
      "ls": 2424,
      "ening": 2425,
      "ital": 2426,
      "Ġpit": 2427,
      "etic": 2428,
      "Ġforge": 2429,
      "ulated": 2430,
      "Ġstones": 2431,
      "Ġalarm": 2432,
      "Ġalmost": 2433,
      "Ġvary": 2434,
      "ibility": 2435,
      "Ġleft": 2436,
      "Ġword": 2437,
      "Ġgrains": 2438,
      "Ġ50": 2439,
      "Ġreported": 2440,
      "ĠISASMELT": 2441,
      "Ġreferred": 2442,
      "lobal": 2443,
      "gr": 2444,
      "Ġcrystall": 2445,
      "Ġsqu": 2446,
      "Ġhor": 2447,
      "Ġreact": 2448,
      "ivity": 2449,
      "ulting": 2450,
      "Ġstates": 2451,
      "ĠDes": 2452,
      "reek": 2453,
      "Ġclos": 2454,
      "Ġflat": 2455,
      "Ġexplo": 2456,
      "allurg": 2457,
      "Ġmolten": 2458,
      "Ġplay": 2459,
      "Ġdating": 2460,
      "cts": 2461,
      "Ġlast": 2462,
      "Ġ14": 2463,
      "Ġ100": 2464,
      "Ġresulting": 2465,
      "Ġaccess": 2466,
      "aged": 2467,
      "Ġthroughout": 2468,
      "Ġrequires": 2469,
      "ĠComm": 2470,
      "Ġparticular": 2471,
      "Ġcontains": 2472,
      "Ġculture": 2473,
      "Ġcooling": 2474,
      "Ġfrequ": 2475,
      "rs": 2476,
      "Ġfall": 2477,
      "Ġfish": 2478,
      "Ġhab": 2479,
      "ĠCopper": 2480,
      "Ġsuitable": 2481,
      "Ġcarried": 2482,
      "Ġdiscovered": 2483,
      "Ġprinc": 2484,
      "Ġpresence": 2485,
      "mbers": 2486,
      "Ġinterest": 2487,
      "ĠGermany": 2488,
      "Ġmagnetite": 2489,
      "sorb": 2490,
      "Ġrapid": 2491,
      "ĠHambleton": 2492,
      "cer": 2493,
      "Ġcore": 2494,
      "ison": 2495,
      "cean": 2496,
      "ĠSERE": 2497,
      "Ġsmo": 2498,
      "Ġprev": 2499,
      "Ġincluded": 2500,
      "ression": 2501,
      "Ġrail": 2502,
      "Ġremove": 2503,
      "Ġoffic": 2504,
      "Ġeffects": 2505,
      "pl": 2506,
      "Ġrough": 2507,
      "Ġturn": 2508,
      "Ġtake": 2509,
      "Ġfree": 2510,
      "enn": 2511,
      "Ġbat": 2512,
      "Ġblow": 2513,
      "Ġhim": 2514,
      "Ġholes": 2515,
      "used": 2516,
      "Ġmembers": 2517,
      "rying": 2518,
      "ĠJo": 2519,
      "Ġcolle": 2520,
      "Ġlargest": 2521,
      "Ġfunction": 2522,
      "Ġimprove": 2523,
      "Ġdemand": 2524,
      "25": 2525,
      "az": 2526,
      "cial": 2527,
      "oist": 2528,
      "Ġcases": 2529,
      "Ġtotal": 2530,
      "Ġemer": 2531,
      "Ġnational": 2532,
      "ĠCamp": 2533,
      "ĠMod": 2534,
      "ĠHun": 2535,
      "Ġ21": 2536,
      "Ġ195": 2537,
      "Ġrope": 2538,
      "ĠKing": 2539,
      "Ġsurfaces": 2540,
      "Ġbasic": 2541,
      "Ġdepending": 2542,
      "Ġpurpose": 2543,
      "Ġsediment": 2544,
      "Ġphysical": 2545,
      "Ġchert": 2546,
      "rical": 2547,
      "Ġcamouflage": 2548,
      "Ġmount": 2549,
      "Ġpast": 2550,
      "Ġrece": 2551,
      "Ġgla": 2552,
      "Ġnod": 2553,
      "ivated": 2554,
      "ams": 2555,
      "Ġsec": 2556,
      "Ġhaving": 2557,
      "Ġens": 2558,
      "ĠOr": 2559,
      "Ġrecord": 2560,
      "issions": 2561,
      "Ġrelated": 2562,
      "Ġavoid": 2563,
      "medi": 2564,
      "Ġface": 2565,
      "omp": 2566,
      "Ġforce": 2567,
      "Ġseen": 2568,
      "ĠRed": 2569,
      "Ġ190": 2570,
      "Ġspread": 2571,
      "agn": 2572,
      "Ġextre": 2573,
      "Ġtherefore": 2574,
      "Ġoriginal": 2575,
      "Ġarchaeological": 2576,
      "Ġestablished": 2577,
      "ai": 2578,
      "go": 2579,
      "hn": 2580,
      "water": 2581,
      "Ġaway": 2582,
      "rete": 2583,
      "Ġopp": 2584,
      "asion": 2585,
      "ilities": 2586,
      "ads": 2587,
      "Ġcob": 2588,
      "Ġarm": 2589,
      "Ġtrade": 2590,
      "Ġconsists": 2591,
      "Ġaccount": 2592,
      "Ġetc": 2593,
      "ĠCorrosion": 2594,
      "Ġapplication": 2595,
      "Ġframe": 2596,
      "Ġter": 2597,
      "Ġmirr": 2598,
      "Ġlack": 2599,
      "uries": 2600,
      "ellow": 2601,
      "illing": 2602,
      "Ġincludes": 2603,
      "Ġlonger": 2604,
      "Ġexamples": 2605,
      "Ġinflu": 2606,
      "Ġdepth": 2607,
      "Ġengineering": 2608,
      "ĠFrance": 2609,
      "erved": 2610,
      "Ġspe": 2611,
      "Ġpo": 2612,
      "ĠPe": 2613,
      "Ġexte": 2614,
      "Ġsignal": 2615,
      "Ġcontaining": 2616,
      "Ġstudies": 2617,
      "Ġvolume": 2618,
      "Ġsimple": 2619,
      "60": 2620,
      "Ġfoc": 2621,
      "Ġdiv": 2622,
      "Ġlat": 2623,
      "eth": 2624,
      "ifact": 2625,
      "ĠMiddle": 2626,
      "ĠPre": 2627,
      "Ġrun": 2628,
      "Ġsee": 2629,
      "Ġadop": 2630,
      "Ġknow": 2631,
      "Ġinvolves": 2632,
      "ĠGerman": 2633,
      "Ġpurposes": 2634,
      "ham": 2635,
      "rast": 2636,
      "vest": 2637,
      "inter": 2638,
      "reen": 2639,
      "arn": 2640,
      "Ġdest": 2641,
      "idge": 2642,
      "Ġable": 2643,
      "Ġmakes": 2644,
      "Ġcompet": 2645,
      "Ġjo": 2646,
      "Ġbuildings": 2647,
      "Ġflake": 2648,
      "Ġexperiment": 2649,
      "15": 2650,
      "Ġ[": 2651,
      "Ġcru": 2652,
      "Ġdeb": 2653,
      "Ġsuper": 2654,
      "ĠEast": 2655,
      "Ġplastic": 2656,
      "Ġdisp": 2657,
      "Ġdecre": 2658,
      "Ġfinal": 2659,
      "Ġdirectly": 2660,
      "Ġcold": 2661,
      "Ġhalf": 2662,
      "Ġgran": 2663,
      "ĠAcc": 2664,
      "illion": 2665,
      "Ġcoke": 2666,
      "Ġitself": 2667,
      "Ġfiring": 2668,
      "Ġincreases": 2669,
      "Ġlayers": 2670,
      "Ġearth": 2671,
      "Ġinside": 2672,
      "Ġcosts": 2673,
      "Ġoxidation": 2674,
      "Ġgovernment": 2675,
      "Ġtit": 2676,
      "Ġmoist": 2677,
      "ingu": 2678,
      "Ġmean": 2679,
      "semb": 2680,
      "acks": 2681,
      "Ġproduces": 2682,
      "aps": 2683,
      "Ġuseful": 2684,
      "Ġwooden": 2685,
      "Ġupon": 2686,
      "Ġworked": 2687,
      "Ġdistinct": 2688,
      "Ġsulfide": 2689,
      "Ġorganic": 2690,
      "Ġclaim": 2691,
      "80": 2692,
      "lor": 2693,
      "oured": 2694,
      "Ġgases": 2695,
      "ĠClay": 2696,
      "Ġ13": 2697,
      "ellows": 2698,
      "Ġblacksmith": 2699,
      "Ġdecor": 2700,
      "Ġhandle": 2701,
      "Ġ40": 2702,
      "Ġhumans": 2703,
      "Ġprecip": 2704,
      "ĠCarbon": 2705,
      "Ġperson": 2706,
      "Ġ=": 2707,
      "Ġtin": 2708,
      "Ġfract": 2709,
      "Ġbark": 2710,
      "Ġevery": 2711,
      "rag": 2712,
      "amin": 2713,
      "ĠHar": 2714,
      "Ġvers": 2715,
      "Ġadap": 2716,
      "Ġimplement": 2717,
      "Ġscrap": 2718,
      "ribution": 2719,
      "Ġsolution": 2720,
      "Ġphase": 2721,
      "Ġelectro": 2722,
      "ledge": 2723,
      "Ġstructures": 2724,
      "Ġbelie": 2725,
      "Ġfollowed": 2726,
      "Ġconcentrate": 2727,
      "Ġreplaced": 2728,
      "Ġmixture": 2729,
      "12": 2730,
      "hold": 2731,
      "mosp": 2732,
      "Ġver": 2733,
      "ump": 2734,
      "unk": 2735,
      "Ġkg": 2736,
      "Ġheld": 2737,
      "ĠUN": 2738,
      "Ġevent": 2739,
      "ĠAsia": 2740,
      "inese": 2741,
      "Ġartifact": 2742,
      "Ġshafts": 2743,
      "ecause": 2744,
      "Ġmarket": 2745,
      "Ġnorth": 2746,
      "Ġround": 2747,
      "Ġsun": 2748,
      "istics": 2749,
      "Ġhealth": 2750,
      "Ġresid": 2751,
      "Ġrole": 2752,
      "Ġimpur": 2753,
      "ians": 2754,
      "ĠChinese": 2755,
      "Ġagg": 2756,
      "Ġtypical": 2757,
      "ĠIndia": 2758,
      "Ġentire": 2759,
      "Ġintroduced": 2760,
      "dom": 2761,
      "Ġage": 2762,
      "ister": 2763,
      "struct": 2764,
      "Ġability": 2765,
      "romet": 2766,
      "verage": 2767,
      "asting": 2768,
      "Ġminers": 2769,
      "Ġtechnical": 2770,
      "Ġcountry": 2771,
      "Ġcontinuous": 2772,
      "Ġdays": 2773,
      "Ġquickly": 2774,
      "aks": 2775,
      "kn": 2776,
      "Ġfarm": 2777,
      "ency": 2778,
      "Ġbit": 2779,
      "ĠSO": 2780,
      "ĠSom": 2781,
      "ĠInternational": 2782,
      "ĠMa": 2783,
      "ĠBr": 2784,
      "que": 2785,
      "ĠUs": 2786,
      "ails": 2787,
      "arent": 2788,
      "ĠAss": 2789,
      "Ġhardness": 2790,
      "Ġkey": 2791,
      "mp": 2792,
      "Ġide": 2793,
      "Ġsitu": 2794,
      "Ġbronze": 2795,
      "Ġdio": 2796,
      "ĠSince": 2797,
      "ĠBecause": 2798,
      "artz": 2799,
      "ĠGu": 2800,
      "Ġforming": 2801,
      "Ġrain": 2802,
      "Ġquar": 2803,
      "ique": 2804,
      "Ġoperating": 2805,
      "Ġsupply": 2806,
      "Ġpattern": 2807,
      "Ġload": 2808,
      "scale": 2809,
      "Ġpyrolysis": 2810,
      "Ġrisk": 2811,
      "Ġseparate": 2812,
      "ĠSmelting": 2813,
      "osystem": 2814,
      "oy": 2815,
      "rel": 2816,
      "erb": 2817,
      "Ġball": 2818,
      "Ġpul": 2819,
      "Ġdou": 2820,
      "urg": 2821,
      "iments": 2822,
      "Ġnet": 2823,
      "abed": 2824,
      "ĠPart": 2825,
      "Ġattem": 2826,
      "Ġhearth": 2827,
      "ressed": 2828,
      "Ġcentral": 2829,
      "Ġagricult": 2830,
      "Ġstructural": 2831,
      "Ġmonth": 2832,
      "Ġsources": 2833,
      "Ġbreak": 2834,
      "Ġsocial": 2835,
      "CC": 2836,
      "ha": 2837,
      "pie": 2838,
      "Ġ$": 2839,
      "Ġsus": 2840,
      "Ġsizes": 2841,
      "Ġfive": 2842,
      "Ġbest": 2843,
      "Ġpil": 2844,
      "Ġliving": 2845,
      "ental": 2846,
      "Ġhouse": 2847,
      "ĠMan": 2848,
      "oph": 2849,
      "ains": 2850,
      "Ġvia": 2851,
      "ĠRep": 2852,
      "ĠGra": 2853,
      "Ġmostly": 2854,
      "Ġzone": 2855,
      "Ġoldest": 2856,
      "Ġmelting": 2857,
      "ferred": 2858,
      "Ġadditional": 2859,
      "Ġsilica": 2860,
      "Ġmixed": 2861,
      "Ġthermal": 2862,
      "Ġdioxide": 2863,
      "lit": 2864,
      "rate": 2865,
      "Ġing": 2866,
      "Ġsamp": 2867,
      "Ġfull": 2868,
      "Ġweld": 2869,
      "Ġlithic": 2870,
      "ĠSurvival": 2871,
      "Ġdemon": 2872,
      "abric": 2873,
      "ĠPol": 2874,
      "ĠDis": 2875,
      "Ġcarb": 2876,
      "Ġclose": 2877,
      "Ġreference": 2878,
      "Ġowners": 2879,
      "ĠSwed": 2880,
      "ĠModern": 2881,
      "min": 2882,
      "pite": 2883,
      "ĠâĢ": 2884,
      "Ġbul": 2885,
      "Ġintern": 2886,
      "ctor": 2887,
      "ĠPr": 2888,
      "ĠFin": 2889,
      "Ġund": 2890,
      "Ġformations": 2891,
      "Ġacqu": 2892,
      "Ġsurround": 2893,
      "Ġclosed": 2894,
      "ĠViet": 2895,
      "lands": 2896,
      "Ġparticip": 2897,
      "Ġallowing": 2898,
      "ĠDeep": 2899,
      "Ġsoils": 2900,
      "Ġcamping": 2901,
      "Ġcontinued": 2902,
      "Ġdraw": 2903,
      "Ġburning": 2904,
      "Ġwalls": 2905,
      "Ġangle": 2906,
      "Ġbiochar": 2907,
      "allurgical": 2908,
      "Ġimpurities": 2909,
      "Ġdemonst": 2910,
      "500": 2911,
      "loc": 2912,
      "pes": 2913,
      "Ġinformation": 2914,
      "Ġdust": 2915,
      "ele": 2916,
      "Ġsug": 2917,
      "Ġatmosp": 2918,
      "ĠFrom": 2919,
      "ude": 2920,
      "Ġ193": 2921,
      "Ġneg": 2922,
      "ĠKn": 2923,
      "inding": 2924,
      "Ġcolor": 2925,
      "iency": 2926,
      "Ġbiom": 2927,
      "orphous": 2928,
      "Ġsafety": 2929,
      "Ġecosystem": 2930,
      "ĠActivated": 2931,
      "Ġcement": 2932,
      "Ġbeginning": 2933,
      "Fe": 2934,
      "produ": 2935,
      "Ġcame": 2936,
      "Ġcateg": 2937,
      "atives": 2938,
      "ald": 2939,
      "enc": 2940,
      "Ġdu": 2941,
      "Ġdensity": 2942,
      "imin": 2943,
      "igns": 2944,
      "iform": 2945,
      "ĠMay": 2946,
      "Ġcome": 2947,
      "istance": 2948,
      "ands": 2949,
      "Ġheated": 2950,
      "izon": 2951,
      "aving": 2952,
      "Ġdissol": 2953,
      "ront": 2954,
      "ĠAnother": 2955,
      "ĠSword": 2956,
      "Ġmelt": 2957,
      "Ġcomponents": 2958,
      "Ġcrystal": 2959,
      "ĠVietnam": 2960,
      "II": 2961,
      "ares": 2962,
      "iation": 2963,
      "nds": 2964,
      "Ġpric": 2965,
      "Ġdur": 2966,
      "Ġdia": 2967,
      "Ġhar": 2968,
      "Ġassemb": 2969,
      "osic": 2970,
      "Ġexcept": 2971,
      "iber": 2972,
      "ogn": 2973,
      "Ġleg": 2974,
      "Ġarc": 2975,
      "Ġdirection": 2976,
      "ĠMetal": 2977,
      "Ġobtained": 2978,
      "ĠSomal": 2979,
      "16": 2980,
      "bs": 2981,
      "ners": 2982,
      "van": 2983,
      "wise": 2984,
      "rect": 2985,
      "Ġmid": 2986,
      "Ġpan": 2987,
      "Ġdie": 2988,
      "Ġlabor": 2989,
      "ĠAm": 2990,
      "utions": 2991,
      "Ġanvil": 2992,
      "allen": 2993,
      "ops": 2994,
      "acu": 2995,
      "Ġshown": 2996,
      "Ġcannot": 2997,
      "ĠRoman": 2998,
      "Ġcolour": 2999,
      "Ġcalls": 3000,
      "Ġemissions": 3001,
      "Ġallowed": 3002,
      "Ġfloor": 3003,
      "Ġmultiple": 3004,
      "Ġsharp": 3005,
      "chers": 3006,
      "Ġindividual": 3007,
      "Ġhabit": 3008,
      "Ġknowledge": 3009,
      "90": 3010,
      "_{": 3011,
      "hyd": 3012,
      "mers": 3013,
      "Ġcm": 3014,
      "Ġinternational": 3015,
      "Ġdated": 3016,
      "ask": 3017,
      "estone": 3018,
      "ĠSo": 3019,
      "osph": 3020,
      "ĠMed": 3021,
      "ĠBl": 3022,
      "Ġitems": 3023,
      "ĠHigh": 3024,
      "ĠWestern": 3025,
      "Ġspruce": 3026,
      "aging": 3027,
      "Ġregard": 3028,
      "ney": 3029,
      "Ġconcrete": 3030,
      "Ġfired": 3031,
      "Ġintended": 3032,
      "Ġfactors": 3033,
      "Ġamounts": 3034,
      "Ġbenefits": 3035,
      "fire": 3036,
      "Ġmot": 3037,
      "iting": 3038,
      "Ġtook": 3039,
      "Ġtoday": 3040,
      "Ġglobal": 3041,
      "Ġalways": 3042,
      "ĠHu": 3043,
      "Ġcovered": 3044,
      "ologies": 3045,
      "Ġquartz": 3046,
      "Ġtreated": 3047,
      "Ġscale": 3048,
      "Ġprovided": 3049,
      "Ġaircraft": 3050,
      "Ġinstead": 3051,
      "istoric": 3052,
      "Ġpublished": 3053,
      "...": 3054,
      "Ġconstructed": 3055,
      "ĠAccording": 3056,
      "iers": 3057,
      "ĠÃ": 3058,
      "Ġtens": 3059,
      "Ġcare": 3060,
      "Ġmight": 3061,
      "ado": 3062,
      "ĠMine": 3063,
      "Ġchild": 3064,
      "pped": 3065,
      "Ġplat": 3066,
      "Ġrecyc": 3067,
      "Ġmicros": 3068,
      "ounter": 3069,
      "Ġestimated": 3070,
      "ger": 3071,
      "vant": 3072,
      "Ġmy": 3073,
      "itage": 3074,
      "Ġpell": 3075,
      "Ġinj": 3076,
      "aste": 3077,
      "Ġlet": 3078,
      "ĠTe": 3079,
      "lying": 3080,
      "ray": 3081,
      "ower": 3082,
      "ĠSol": 3083,
      "utes": 3084,
      "une": 3085,
      "ĠRiver": 3086,
      "Ġcomposed": 3087,
      "Ġsteam": 3088,
      "Ġprep": 3089,
      "Ġscient": 3090,
      "Ġrecogn": 3091,
      "Ġsubject": 3092,
      "Ġsubsequ": 3093,
      "Ġcreating": 3094,
      "Ġaccording": 3095,
      "isms": 3096,
      "Ġ60": 3097,
      "Ġactivity": 3098,
      "Ġconcentration": 3099,
      "Ġsuccessful": 3100,
      "Ġefficient": 3101,
      "Ġnodules": 3102,
      "Ġmoisture": 3103,
      "Ġattempt": 3104,
      "Ġcyc": 3105,
      "Ġsouthern": 3106,
      "Ġfig": 3107,
      "Ġwat": 3108,
      "Ġput": 3109,
      "ica": 3110,
      "ids": 3111,
      "ellul": 3112,
      "ĠPot": 3113,
      "ĠFir": 3114,
      "Ġformer": 3115,
      "Ġpercent": 3116,
      "Ġyellow": 3117,
      "Ġoutside": 3118,
      "Ġ187": 3119,
      "Ġboil": 3120,
      "Ġedges": 3121,
      "ĠCorps": 3122,
      "Ġchanges": 3123,
      "Ġtaken": 3124,
      "Ġvessels": 3125,
      "ĠSteel": 3126,
      "ding": 3127,
      "onite": 3128,
      "Ġdark": 3129,
      "Ġrev": 3130,
      "Ġdeformation": 3131,
      "ables": 3132,
      "mental": 3133,
      "ĠPy": 3134,
      "ĠHill": 3135,
      "ĠEarly": 3136,
      "Ġmetres": 3137,
      "ĠRon": 3138,
      "ĠGo": 3139,
      "Ġnext": 3140,
      "Ġspace": 3141,
      "Ġcenturies": 3142,
      "Ġdrilling": 3143,
      "Ġclear": 3144,
      "Ġsignificantly": 3145,
      "Ġvalu": 3146,
      "apping": 3147,
      "Ġremoval": 3148,
      "Ġcritical": 3149,
      "Ġnamed": 3150,
      "piece": 3151,
      "cu": 3152,
      "ira": 3153,
      "my": 3154,
      "sp": 3155,
      "ym": 3156,
      "zing": 3157,
      "Ġaverage": 3158,
      "Ġbillion": 3159,
      "ising": 3160,
      "icle": 3161,
      "entially": 3162,
      "ĠBat": 3163,
      "ĠEgy": 3164,
      "ĠGr": 3165,
      "ĠIts": 3166,
      "Ġrecom": 3167,
      "Ġlocation": 3168,
      "Ġvalue": 3169,
      "Ġweapon": 3170,
      "Ġrespons": 3171,
      "Ġutil": 3172,
      "Ġrepresent": 3173,
      "Ġadvantage": 3174,
      "Ġessential": 3175,
      "ĠEgypt": 3176,
      "SO": 3177,
      "hol": 3178,
      "hetic": 3179,
      "Ġsaid": 3180,
      "aly": 3181,
      "Ġfix": 3182,
      "Ġmould": 3183,
      "rogen": 3184,
      "usions": 3185,
      "ĠTyp": 3186,
      "Ġgod": 3187,
      "ivil": 3188,
      "ĠCer": 3189,
      "ĠSil": 3190,
      "Ġonce": 3191,
      "ĠDist": 3192,
      "Ġrates": 3193,
      "Ġrol": 3194,
      "Ġleading": 3195,
      "Ġprovides": 3196,
      "Ġinvolved": 3197,
      "ipped": 3198,
      "Ġresource": 3199,
      "Ġefficiency": 3200,
      "Ġbranches": 3201,
      "Ġbiomass": 3202,
      "aun": 3203,
      "ew": 3204,
      "right": 3205,
      "Ã¼": 3206,
      "Ġfabric": 3207,
      "Ġbone": 3208,
      "Ġprob": 3209,
      "igen": 3210,
      "ĠSuch": 3211,
      "Ġstage": 3212,
      "ift": 3213,
      "ĠBla": 3214,
      "ĠBio": 3215,
      "ĠPar": 3216,
      "Ġview": 3217,
      "Ġchrom": 3218,
      "Ġcanopy": 3219,
      "Ġcompounds": 3220,
      "ologists": 3221,
      "Ġconservation": 3222,
      "Ġrefers": 3223,
      "Ġcolla": 3224,
      "Ġworkers": 3225,
      "icea": 3226,
      "Ġremained": 3227,
      "Ġpractices": 3228,
      "Ġthought": 3229,
      "Ġauthor": 3230,
      "Ġhydrogen": 3231,
      "Ġexcav": 3232,
      "Ġalternative": 3233,
      "put": 3234,
      "sel": 3235,
      "set": 3236,
      "Ġsab": 3237,
      "Ġbrit": 3238,
      "orage": 3239,
      "Ġtown": 3240,
      "Ġlines": 3241,
      "Ġnar": 3242,
      "Ġdeg": 3243,
      "ĠMore": 3244,
      "Ġsufficient": 3245,
      "ĠHen": 3246,
      "Ġvi": 3247,
      "cover": 3248,
      "Ġarran": 3249,
      "ieval": 3250,
      "Ġknives": 3251,
      "Ġbecomes": 3252,
      "Ġcollect": 3253,
      "Ġmonit": 3254,
      "Ġpopulations": 3255,
      "Ġskills": 3256,
      "Ġcauses": 3257,
      "Ġabrasive": 3258,
      "Ġrecomme": 3259,
      "rated": 3260,
      "rink": 3261,
      "ĠÂ": 3262,
      "Ġcra": 3263,
      "Ġcere": 3264,
      "Ġchem": 3265,
      "Ġschool": 3266,
      "Ġbellows": 3267,
      "ara": 3268,
      "entic": 3269,
      "Ġrever": 3270,
      "imet": 3271,
      "sea": 3272,
      "Ġexpos": 3273,
      "ĠWe": 3274,
      "Ġ25": 3275,
      "Ġright": 3276,
      "Ġrang": 3277,
      "ĠGreek": 3278,
      "Ġsmith": 3279,
      "Ġrefract": 3280,
      "Ġrecrystall": 3281,
      "ĠForce": 3282,
      "Ġcombination": 3283,
      "Ġmanufacturing": 3284,
      "oxide": 3285,
      "Ġconducted": 3286,
      "ED": 3287,
      "lies": 3288,
      "Ġfr": 3289,
      "Ġfit": 3290,
      "Ġfav": 3291,
      "Ġfoss": 3292,
      "Ġmen": 3293,
      "Ġwalk": 3294,
      "omen": 3295,
      "Ġthreat": 3296,
      "cement": 3297,
      "Ġnit": 3298,
      "Ġnum": 3299,
      "Ġstock": 3300,
      "Ġmined": 3301,
      "ightly": 3302,
      "beratory": 3303,
      "Ġstep": 3304,
      "Ġdeveloping": 3305,
      "Ġassess": 3306,
      "Ġgrowing": 3307,
      "Ġcombust": 3308,
      "Ġsecondary": 3309,
      "ĠAbies": 3310,
      "Ġshaped": 3311,
      "Ġcabinet": 3312,
      "Ġsquare": 3313,
      "door": 3314,
      "ike": 3315,
      "los": 3316,
      "âģ": 3317,
      "Ġ/": 3318,
      "rees": 3319,
      "aled": 3320,
      "ana": 3321,
      "Ġreached": 3322,
      "olved": 3323,
      "igation": 3324,
      "ĠSain": 3325,
      "Ġstorage": 3326,
      "ĠHand": 3327,
      "andon": 3328,
      "Ġexcess": 3329,
      "Ġinches": 3330,
      "Ġheight": 3331,
      "Ġrecent": 3332,
      "gency": 3333,
      "Ġbox": 3334,
      "Ġintegr": 3335,
      "ucle": 3336,
      "ĠBritain": 3337,
      "Ġhematite": 3338,
      "Ġceramic": 3339,
      "ĠKingdom": 3340,
      "Ġton": 3341,
      "enic": 3342,
      "omo": 3343,
      "ĠCons": 3344,
      "ĠInst": 3345,
      "ifically": 3346,
      "ĠPark": 3347,
      "Ġuns": 3348,
      "âĢĿ": 3349,
      "Ġadj": 3350,
      "inder": 3351,
      "Ġenvironments": 3352,
      "Ġdefined": 3353,
      "mbol": 3354,
      "Ġcontrolled": 3355,
      "Ġcourse": 3356,
      "Ġseries": 3357,
      "Ġcomplete": 3358,
      "ography": 3359,
      "Ġcomponent": 3360,
      "bertia": 3361,
      "Ġderived": 3362,
      "ĠCanada": 3363,
      "igenous": 3364,
      "\")": 3365,
      "cel": 3366,
      "ken": 3367,
      "light": 3368,
      "rum": 3369,
      "ugh": 3370,
      "Ã¶": 3371,
      "Ġ)": 3372,
      "Ġtro": 3373,
      "eries": 3374,
      "Ġopt": 3375,
      "Ġocean": 3376,
      "itute": 3377,
      "Ġbus": 3378,
      "Ġforces": 3379,
      "ĠCat": 3380,
      "ĠCount": 3381,
      "ula": 3382,
      "ĠMe": 3383,
      "ighter": 3384,
      "occ": 3385,
      "Ġprepar": 3386,
      "Ġregulations": 3387,
      "Ġthemsel": 3388,
      "oves": 3389,
      "Ġlimestone": 3390,
      "Ġpowder": 3391,
      "Ġcombined": 3392,
      "Ġnearby": 3393,
      "Ġmarine": 3394,
      "Ġcharacteristics": 3395,
      "Ġboundaries": 3396,
      "Ġachieved": 3397,
      "Ġmovement": 3398,
      "pril": 3399,
      "Ġfeatures": 3400,
      "carbon": 3401,
      "Ġmeaning": 3402,
      "âģĦ": 3403,
      "Ġthemselves": 3404,
      "lud": 3405,
      "men": 3406,
      "ĠÏ": 3407,
      "Ġign": 3408,
      "Ġsoci": 3409,
      "Ġthird": 3410,
      "ceed": 3411,
      "ĠAg": 3412,
      "Ġash": 3413,
      "aped": 3414,
      "Ġropes": 3415,
      "ĠKur": 3416,
      "ditionally": 3417,
      "Ġdesired": 3418,
      "Ġweather": 3419,
      "Ġindustries": 3420,
      "Ġadopted": 3421,
      "Ġharvest": 3422,
      "oo": 3423,
      "Ġtonn": 3424,
      "inking": 3425,
      "reed": 3426,
      "Ġsn": 3427,
      "Ġfront": 3428,
      "Ġbric": 3429,
      "Ġbush": 3430,
      "Ġpost": 3431,
      "icles": 3432,
      "Ġlost": 3433,
      "ĠApril": 3434,
      "Ġproper": 3435,
      "ĠEv": 3436,
      "Ġkm": 3437,
      "ocum": 3438,
      "Ġring": 3439,
      "Ġsequ": 3440,
      "Ġnearly": 3441,
      "Ġcarving": 3442,
      "akes": 3443,
      "Ġsmelters": 3444,
      "Ġunderstand": 3445,
      "Ġweak": 3446,
      "Ġtransition": 3447,
      "Ġemb": 3448,
      "Ġlime": 3449,
      "ropri": 3450,
      "ĠIndustr": 3451,
      "Ġmedium": 3452,
      "Ġbodies": 3453,
      "Ġstarted": 3454,
      "Ġexploration": 3455,
      "Ġbehav": 3456,
      "ĠPhil": 3457,
      "Ġsustainable": 3458,
      "Ġartifacts": 3459,
      "ĠHubertia": 3460,
      "99": 3461,
      "can": 3462,
      "gress": 3463,
      "wo": 3464,
      "Ġsix": 3465,
      "Ġfru": 3466,
      "Ġfund": 3467,
      "Ġlance": 3468,
      "champ": 3469,
      "Ġget": 3470,
      "Ġgall": 3471,
      "ĠSpec": 3472,
      "ames": 3473,
      "ĠBel": 3474,
      "Ġmaxim": 3475,
      "thrac": 3476,
      "Ġchallen": 3477,
      "Ġshall": 3478,
      "Ġrich": 3479,
      "Ġseeds": 3480,
      "Ġcoating": 3481,
      "Ġunit": 3482,
      "Ġdise": 3483,
      "Ġ188": 3484,
      "Ġworkpiece": 3485,
      "ĠAll": 3486,
      "ovet": 3487,
      "Ġphosph": 3488,
      "Ġcapital": 3489,
      "Ġremaining": 3490,
      "Ġdeposit": 3491,
      "Ġpopulation": 3492,
      "Ġmatte": 3493,
      "Ġreactions": 3494,
      "ĠHunting": 3495,
      "Ġfocus": 3496,
      "ĠRonchamp": 3497,
      "Ġreverberatory": 3498,
      "IR": 3499,
      "hy": 3500,
      "hing": 3501,
      "nces": 3502,
      "rip": 3503,
      "Ġten": 3504,
      "Ġbag": 3505,
      "orus": 3506,
      "Ġrecovery": 3507,
      "Ġep": 3508,
      "Ġgive": 3509,
      "Ġnucle": 3510,
      "ĠMin": 3511,
      "Ġmak": 3512,
      "ĠPicea": 3513,
      "ĠDr": 3514,
      "Ġcontract": 3515,
      "Ġextens": 3516,
      "ĠUniversity": 3517,
      "Ġ90": 3518,
      "Ġattached": 3519,
      "ashing": 3520,
      "Ġcultures": 3521,
      "ĠAustralian": 3522,
      "Ġresemb": 3523,
      "Ġmanufactured": 3524,
      "Ġimmedi": 3525,
      "Ġshapes": 3526,
      "Ġmeasure": 3527,
      "Ġproblems": 3528,
      "Ġprevious": 3529,
      "17": 3530,
      "epend": 3531,
      "lam": 3532,
      "oian": 3533,
      "yond": 3534,
      "Ġ%": 3535,
      "Ġill": 3536,
      "Ġcraft": 3537,
      "Ġinse": 3538,
      "terns": 3539,
      "ĠElect": 3540,
      "ĠEarth": 3541,
      "Ġcho": 3542,
      "ocks": 3543,
      "itect": 3544,
      "Ġhaz": 3545,
      "ĠRuss": 3546,
      "ief": 3547,
      "Ġsplit": 3548,
      "Ġexpensive": 3549,
      "Ġactive": 3550,
      "Ġmodel": 3551,
      "Ġkilomet": 3552,
      "Ġdefects": 3553,
      "Ġapproach": 3554,
      "Ġclassified": 3555,
      "Ġmachine": 3556,
      "Ġbloomery": 3557,
      "Ġnormally": 3558,
      "Ġrecrystallization": 3559,
      "ipe": 3560,
      "Ġ&": 3561,
      "Ġi": 3562,
      "Ġcust": 3563,
      "Ġdate": 3564,
      "Ġreason": 3565,
      "omb": 3566,
      "Ġproposed": 3567,
      "Ġabandon": 3568,
      "Ġdeath": 3569,
      "iforn": 3570,
      "abb": 3571,
      "illation": 3572,
      "ainite": 3573,
      "Ġship": 3574,
      "Ġsection": 3575,
      "pping": 3576,
      "Ġcoast": 3577,
      "Ġwhether": 3578,
      "Ġinclusions": 3579,
      "Ġsteels": 3580,
      "Ġcenter": 3581,
      "Ġprior": 3582,
      "Ġpoles": 3583,
      "Ġdistribution": 3584,
      "Ġ47": 3585,
      "ĠArch": 3586,
      "ĠReg": 3587,
      "Ġterms": 3588,
      "Ġcausing": 3589,
      "Ġways": 3590,
      "Ġimproved": 3591,
      "Ġthickness": 3592,
      "Ġsuggested": 3593,
      "Ġcompletely": 3594,
      "Ġinitial": 3595,
      "Ġtarget": 3596,
      "ographic": 3597,
      "ĠJapanese": 3598,
      "Ġcrystals": 3599,
      "Ġcarpentry": 3600,
      "Ġpollution": 3601,
      "Ġbrittle": 3602,
      "life": 3603,
      "rust": 3604,
      "tes": 3605,
      "uous": 3606,
      "Ġcounter": 3607,
      "Ġfires": 3608,
      "isher": 3609,
      "anium": 3610,
      "Ġdimens": 3611,
      "Ġlink": 3612,
      "ushed": 3613,
      "Ġbeg": 3614,
      "Ġstat": 3615,
      "Ġord": 3616,
      "Ġorient": 3617,
      "Ġabund": 3618,
      "Ġmeet": 3619,
      "anted": 3620,
      "Ġvent": 3621,
      "Ġseabed": 3622,
      "irect": 3623,
      "ipes": 3624,
      "Ġcontrast": 3625,
      "Ġroots": 3626,
      "ought": 3627,
      "ilding": 3628,
      "ĠStone": 3629,
      "Ġrecre": 3630,
      "Ġdistingu": 3631,
      "undred": 3632,
      "Ġstandards": 3633,
      "Ġmagnes": 3634,
      "Ġsilicon": 3635,
      "Ġshelter": 3636,
      "Ġautom": 3637,
      "Ġboundary": 3638,
      "Ġfamily": 3639,
      "Ġextrem": 3640,
      "Ġinternal": 3641,
      "Ġnumerous": 3642,
      "Ġtonnes": 3643,
      "11": 3644,
      "The": 3645,
      "bu": 3646,
      "col": 3647,
      "mic": 3648,
      "where": 3649,
      "Ġsap": 3650,
      "Ġsides": 3651,
      "ala": 3652,
      "Ġflex": 3653,
      "Ġwrit": 3654,
      "Ġbow": 3655,
      "rops": 3656,
      "Ġdang": 3657,
      "asons": 3658,
      "stones": 3659,
      "Ġnative": 3660,
      "Ġnorthern": 3661,
      "ĠAnd": 3662,
      "ĠApp": 3663,
      "pected": 3664,
      "Ġexhib": 3665,
      "ĠWest": 3666,
      "usten": 3667,
      "artment": 3668,
      "ibly": 3669,
      "ruck": 3670,
      "Ġaccept": 3671,
      "Ġpreh": 3672,
      "Ġquen": 3673,
      "Ġtechnologies": 3674,
      "Ġwee": 3675,
      "Ġsymbol": 3676,
      "Ġconcern": 3677,
      "Ġoccup": 3678,
      "Ġneeds": 3679,
      "Ġmonoxide": 3680,
      "Ġoriginally": 3681,
      "Ġ80": 3682,
      "Ġconduct": 3683,
      "Ġsedimentary": 3684,
      "Ġprecipit": 3685,
      "Ġeventually": 3686,
      "acuum": 3687,
      "Ġrefractory": 3688,
      "hab": 3689,
      "su": 3690,
      "hest": 3691,
      "alced": 3692,
      "Ġwestern": 3693,
      "Ġbrown": 3694,
      "Ġdomin": 3695,
      "Ġdata": 3696,
      "urally": 3697,
      "Ġconvent": 3698,
      "Ġgame": 3699,
      "ĠSu": 3700,
      "ĠBush": 3701,
      "ĠPer": 3702,
      "ĠHard": 3703,
      "aches": 3704,
      "Ġrights": 3705,
      "Ġcompar": 3706,
      "ĠLim": 3707,
      "Ġarg": 3708,
      "Ġmangan": 3709,
      "ĠStand": 3710,
      "Ġexport": 3711,
      "Ġproviding": 3712,
      "Ġelectron": 3713,
      "entral": 3714,
      "ĠArmy": 3715,
      "Ġpoints": 3716,
      "Ġpatterns": 3717,
      "ĠResear": 3718,
      "Ġstraight": 3719,
      "Ġ2023": 3720,
      "Ġexisting": 3721,
      "Ġidentified": 3722,
      "Ġemployed": 3723,
      "Ġensure": 3724,
      "ĠâĢľ": 3725,
      "Ġmanganese": 3726,
      "house": 3727,
      "long": 3728,
      "over": 3729,
      "tin": 3730,
      "Ġcav": 3731,
      "Ġfrag": 3732,
      "Ġpet": 3733,
      "Ġdocum": 3734,
      "asc": 3735,
      "ĠCa": 3736,
      "ĠSch": 3737,
      "Ġwhose": 3738,
      "ĠNo": 3739,
      "ays": 3740,
      "Ġrespect": 3741,
      "ĠUK": 3742,
      "Ġrelations": 3743,
      "ĠâĨ": 3744,
      "shaped": 3745,
      "Ġmechanisms": 3746,
      "ĠCaliforn": 3747,
      "ĠEnviron": 3748,
      "Ġinstalled": 3749,
      "ĠJohn": 3750,
      "Ġcobalt": 3751,
      "Ġlatter": 3752,
      "Ġgranite": 3753,
      "Ġdouble": 3754,
      "ĠSweden": 3755,
      "Ġprobably": 3756,
      "enticulate": 3757,
      "Ġcombustion": 3758,
      "200": 3759,
      "ee": 3760,
      "pread": 3761,
      "Ġfoot": 3762,
      "Ġwides": 3763,
      "Ġbacter": 3764,
      "Ġpoor": 3765,
      "isation": 3766,
      "Ġdom": 3767,
      "oura": 3768,
      "Ġreve": 3769,
      "Ġbeyond": 3770,
      "ades": 3771,
      "Ġabsorb": 3772,
      "istry": 3773,
      "ĠProdu": 3774,
      "ĠFund": 3775,
      "ander": 3776,
      "Ġchlor": 3777,
      "Ġshows": 3778,
      "Ġ24": 3779,
      "Ġgenus": 3780,
      "Ġdistress": 3781,
      "Ġmillenn": 3782,
      "Ġconstant": 3783,
      "works": 3784,
      "Ġliter": 3785,
      "namic": 3786,
      "Ġcalcium": 3787,
      "ĠCaloian": 3788,
      "Ġappearance": 3789,
      "Ġfrequently": 3790,
      "Ġmonths": 3791,
      "Ġvaluable": 3792,
      "Ġwidespread": 3793,
      "%.": 3794,
      "field": 3795,
      "hire": 3796,
      "Ġ{": 3797,
      "ĸĦ": 3798,
      "rew": 3799,
      "Ġsla": 3800,
      "aling": 3801,
      "anks": 3802,
      "Ġtox": 3803,
      "urity": 3804,
      "Ġstove": 3805,
      "ĠWill": 3806,
      "Ġheav": 3807,
      "udd": 3808,
      "Ġreserv": 3809,
      "Ġuniform": 3810,
      "Ġcharge": 3811,
      "Ġagent": 3812,
      "Ġcolon": 3813,
      "Ġ189": 3814,
      "ĠVal": 3815,
      "Ġoperate": 3816,
      "Ġamorphous": 3817,
      "ĠAncient": 3818,
      "Ġfinished": 3819,
      "Ġlimit": 3820,
      "ropical": 3821,
      "Ġlargely": 3822,
      "Ġreturn": 3823,
      "rystalline": 3824,
      "Ġesc": 3825,
      "ounced": 3826,
      "scape": 3827,
      "Ġsimply": 3828,
      "ĠSpain": 3829,
      "Ġpainting": 3830,
      "sorption": 3831,
      "ĠâĪ": 3832,
      "Ġaffect": 3833,
      "Ġiniti": 3834,
      "Ġconsisting": 3835,
      "Ġveh": 3836,
      "ĠQue": 3837,
      "Ġtakes": 3838,
      "Ġproblem": 3839,
      "Ġquantities": 3840,
      "Ġhorizon": 3841,
      "Ġprincip": 3842,
      "Ġmirror": 3843,
      "Ġfracture": 3844,
      "ĠâĨĴ": 3845,
      ".)": 3846,
      "aff": 3847,
      "bur": 3848,
      "cuss": 3849,
      "vop": 3850,
      "Ġaid": 3851,
      "Ġbif": 3852,
      "Ġbanded": 3853,
      "Ġlic": 3854,
      "Ġhours": 3855,
      "Ġhundred": 3856,
      "Ġreach": 3857,
      "oming": 3858,
      "struction": 3859,
      "ĠAc": 3860,
      "Ġprot": 3861,
      "estic": 3862,
      "alled": 3863,
      "alling": 3864,
      "ĠHomo": 3865,
      "Ġvap": 3866,
      "Ġrat": 3867,
      "Ġriver": 3868,
      "Ġseason": 3869,
      "ĠNavy": 3870,
      "ĠJu": 3871,
      "Ġexpla": 3872,
      "ĠAlso": 3873,
      "Ġgenerated": 3874,
      "ĠCommon": 3875,
      "oked": 3876,
      "Ġbook": 3877,
      "Ġequival": 3878,
      "Ġdeposition": 3879,
      "Ġcourts": 3880,
      "Ġstrain": 3881,
      "Ġconverter": 3882,
      "Ġera": 3883,
      "Ġcellulose": 3884,
      "ĠHenry": 3885,
      "EDD": 3886,
      "ropriate": 3887,
      "ĠCalifornia": 3888,
      "13": 3889,
      "aut": 3890,
      "br": 3891,
      "wide": 3892,
      "yn": 3893,
      "Ã¡": 3894,
      "Ġult": 3895,
      "inch": 3896,
      "ont": 3897,
      "erior": 3898,
      "Ġop": 3899,
      "Ġfast": 3900,
      "itic": 3901,
      "Ġdates": 3902,
      "Ġharm": 3903,
      "Ġretain": 3904,
      "Ġrecovered": 3905,
      "eties": 3906,
      "change": 3907,
      "ĠTheir": 3908,
      "amination": 3909,
      "Ġstyle": 3910,
      "vere": 3911,
      "ĠBronze": 3912,
      "unity": 3913,
      "ĠDep": 3914,
      "rupt": 3915,
      "Ġnever": 3916,
      "Ġspring": 3917,
      "Ġdesigns": 3918,
      "Ġupper": 3919,
      "Ġsmelted": 3920,
      "Ġtransfer": 3921,
      "ĠNeolithic": 3922,
      "Ġskin": 3923,
      "Ġferrite": 3924,
      "Ġgrinding": 3925,
      "Ġ1990": 3926,
      "ĠYor": 3927,
      "Ġspecialized": 3928,
      "Ġremoving": 3929,
      "ributed": 3930,
      "Ġachieve": 3931,
      "Ġbehind": 3932,
      "Ġnormal": 3933,
      "Ġadapt": 3934,
      "Ġpilot": 3935,
      "Ġsurrounding": 3936,
      "rinkage": 3937,
      "alcedony": 3938,
      "vopast": 3939,
      "Al": 3940,
      "haps": 3941,
      "ii": 3942,
      "ius": 3943,
      "part": 3944,
      "tical": 3945,
      "Ġtub": 3946,
      "Ġausten": 3947,
      "inition": 3948,
      "head": 3949,
      "erns": 3950,
      "Ġsum": 3951,
      "Ġself": 3952,
      "Ġful": 3953,
      "ences": 3954,
      "Ġhome": 3955,
      "Ġthous": 3956,
      "Ġconn": 3957,
      "uture": 3958,
      "erson": 3959,
      "Ġcomes": 3960,
      "unn": 3961,
      "ĠPine": 3962,
      "ĠEd": 3963,
      "ĠExt": 3964,
      "acking": 3965,
      "Ġrings": 3966,
      "Ġtext": 3967,
      "Ġpreferred": 3968,
      "ĠJune": 3969,
      "Ġdiffusion": 3970,
      "Ġefforts": 3971,
      "Ġ500": 3972,
      "Ġplaces": 3973,
      "Ġimportance": 3974,
      "imilarly": 3975,
      "ĠIndian": 3976,
      "Ġopened": 3977,
      "}}}": 3978,
      "ĠLead": 3979,
      "Ġfung": 3980,
      "Ġconsumption": 3981,
      "Ġrapidly": 3982,
      "Ġbelieved": 3983,
      "Ġceremon": 3984,
      "Ġbusiness": 3985,
      "%{\\": 3986,
      "cop": 3987,
      "lus": 3988,
      "mak": 3989,
      "oks": 3990,
      "pre": 3991,
      "rat": 3992,
      "inal": 3993,
      "hel": 3994,
      "Ġsim": 3995,
      "also": 3996,
      "eder": 3997,
      "Ġfat": 3998,
      "Ġhy": 3999,
      "Ġreal": 4000,
      "Ġbear": 4001,
      "ĠCast": 4002,
      "Ġstages": 4003,
      "osity": 4004,
      "Ġdegra": 4005,
      "ĠEli": 4006,
      "Ġexposed": 4007,
      "ĠWater": 4008,
      "Ġincor": 4009,
      "iang": 4010,
      "Ġunique": 4011,
      "Ġreflect": 4012,
      "Ġclays": 4013,
      "Ġhardwood": 4014,
      "ribute": 4015,
      "Ġslip": 4016,
      "Ġorganisms": 4017,
      "Ġowned": 4018,
      "Ġmedieval": 4019,
      "Ġcourt": 4020,
      "Ġvisible": 4021,
      "Ġyoung": 4022,
      "ĠAssoci": 4023,
      "ĠSomalia": 4024,
      "Ġresponsible": 4025,
      "ovetail": 4026,
      "Ġextremely": 4027,
      "AC": 4028,
      "bing": 4029,
      "bor": 4030,
      "such": 4031,
      "uary": 4032,
      "vils": 4033,
      "Ġ\\": 4034,
      "atin": 4035,
      "Ġbath": 4036,
      "ille": 4037,
      "ĠAnt": 4038,
      "Ġ(\"": 4039,
      "ĠBut": 4040,
      "Ġcham": 4041,
      "ĠGran": 4042,
      "ften": 4043,
      "Ġspecifically": 4044,
      "Ġrefined": 4045,
      "Ġgraph": 4046,
      "lages": 4047,
      "Ġfinish": 4048,
      "Ġeasier": 4049,
      "Ġcultural": 4050,
      "ictor": 4051,
      "Ġearlier": 4052,
      "onnel": 4053,
      "useum": 4054,
      "proof": 4055,
      "Ġchildren": 4056,
      "Ġpellets": 4057,
      "ĠGovern": 4058,
      "Ġprehistoric": 4059,
      "66": 4060,
      "IF": 4061,
      "mal": 4062,
      "more": 4063,
      "sw": 4064,
      "zed": 4065,
      "Ġir": 4066,
      "Ġtail": 4067,
      "Ġaction": 4068,
      "Ġcyl": 4069,
      "itical": 4070,
      "Ġbol": 4071,
      "Ġbond": 4072,
      "Ġbird": 4073,
      "anced": 4074,
      "astern": 4075,
      "Ġlab": 4076,
      "ston": 4077,
      "ĠSchool": 4078,
      "elled": 4079,
      "ĠMagn": 4080,
      "ĠBu": 4081,
      "ĠGold": 4082,
      "ĠGreat": 4083,
      "ĠOnce": 4084,
      "Ġcommission": 4085,
      "Ġpercuss": 4086,
      "Ġtexture": 4087,
      "position": 4088,
      "Ġevolution": 4089,
      "ublic": 4090,
      "Ġsynt": 4091,
      "Ġconcerns": 4092,
      "Ġoccurred": 4093,
      "Ġarchitect": 4094,
      "ĠBCE": 4095,
      "racking": 4096,
      "Ġeasy": 4097,
      "ready": 4098,
      "Ġpigment": 4099,
      "Ġresear": 4100,
      "Ġcooled": 4101,
      "Ġ1970": 4102,
      "Ġfacility": 4103,
      "Ġfacilities": 4104,
      "Ġmicrostruct": 4105,
      "Ġimpacts": 4106,
      "Ġfilm": 4107,
      "Ġinvestig": 4108,
      "Ġcapture": 4109,
      "Ġissues": 4110,
      "Ġsmoke": 4111,
      "Ġdecorative": 4112,
      "known": 4113,
      "Ġhabitat": 4114,
      "ĠSaint": 4115,
      ",\"": 4116,
      "14": 4117,
      "33": 4118,
      "zes": 4119,
      "Ã¤": 4120,
      "Ġx": 4121,
      "Ġtip": 4122,
      "Ġcivil": 4123,
      "Ġsle": 4124,
      "Ġbed": 4125,
      "Ġbiod": 4126,
      "Ġpen": 4127,
      "Ġpath": 4128,
      "ster": 4129,
      "Ġconcept": 4130,
      "osite": 4131,
      "vey": 4132,
      "ĠFre": 4133,
      "Ġchopp": 4134,
      "Ġ2000": 4135,
      "arthen": 4136,
      "orestation": 4137,
      "Ġunits": 4138,
      "ĠJan": 4139,
      "Ġ300": 4140,
      "Ġdistance": 4141,
      "Ġdriven": 4142,
      "Ġhunters": 4143,
      "Ġnaturally": 4144,
      "Ġslightly": 4145,
      "Ġexperiments": 4146,
      "ĠForestry": 4147,
      "Ġaffected": 4148,
      "Ġextracted": 4149,
      "Ġportion": 4150,
      "Ġfailure": 4151,
      "Ġatmosphere": 4152,
      "ĠVietnamese": 4153,
      "Ġpreparation": 4154,
      "ript": 4155,
      "OS": 4156,
      "cur": 4157,
      "face": 4158,
      "ford": 4159,
      "mi": 4160,
      "onse": 4161,
      "Ġsat": 4162,
      "Ġfuture": 4163,
      "eness": 4164,
      "Ġmiddle": 4165,
      "Ġwet": 4166,
      "itual": 4167,
      "Ġpal": 4168,
      "Ġpay": 4169,
      "ises": 4170,
      "Ġlighter": 4171,
      "ĠSk": 4172,
      "ĠSever": 4173,
      "uted": 4174,
      "ĠMor": 4175,
      "ĠMel": 4176,
      "Ġmeat": 4177,
      "ĠBo": 4178,
      "ĠBas": 4179,
      "ĠPal": 4180,
      "atern": 4181,
      "Ġatoms": 4182,
      "ĠDue": 4183,
      "Ġrig": 4184,
      "Ġlegal": 4185,
      "Ġ192": 4186,
      "cohol": 4187,
      "Ġprocessed": 4188,
      "Ġrod": 4189,
      "ĠKen": 4190,
      "Ġgradu": 4191,
      "olec": 4192,
      "Ġdetail": 4193,
      "SAR": 4194,
      "Ġpractical": 4195,
      "Ġenter": 4196,
      "tember": 4197,
      "ounc": 4198,
      "Ġaluminum": 4199,
      "Ġ1980": 4200,
      "Ġsubstant": 4201,
      "Ġdrying": 4202,
      "Ġresponse": 4203,
      "Ġdetermine": 4204,
      "which": 4205,
      "ĠGeor": 4206,
      "forestry": 4207,
      "Ġexploitation": 4208,
      "Ġprice": 4209,
      "Ġdiagram": 4210,
      "ĠTechn": 4211,
      "Ġfixed": 4212,
      "Ġaustenite": 4213,
      "IS": 4214,
      "VN": 4215,
      "bla": 4216,
      "bour": 4217,
      "ku": 4218,
      "lers": 4219,
      "Ã±": 4220,
      "Ġtall": 4221,
      "Ġtru": 4222,
      "Ġaim": 4223,
      "Ġfore": 4224,
      "Ġbal": 4225,
      "arian": 4226,
      "ico": 4227,
      "icks": 4228,
      "Ġtow": 4229,
      "Ġdivers": 4230,
      "Ġlign": 4231,
      "Ġhous": 4232,
      "Ġconif": 4233,
      "ĠCabin": 4234,
      "odes": 4235,
      "ĠInc": 4236,
      "ĠBor": 4237,
      "ĠPale": 4238,
      "Ġvacuum": 4239,
      "ighting": 4240,
      "ĠNove": 4241,
      "ĠGener": 4242,
      "Ġleave": 4243,
      "ĠThus": 4244,
      "Ġperman": 4245,
      "Ġsoon": 4246,
      "Ġwoods": 4247,
      "Ġindepend": 4248,
      "ĠState": 4249,
      "Ġpolic": 4250,
      "Ġdistillation": 4251,
      "Ġhardwoods": 4252,
      "Ġelectrical": 4253,
      "Ġcontained": 4254,
      "Ġboard": 4255,
      "Ġ2018": 4256,
      "Ġelement": 4257,
      "Ġgrass": 4258,
      "Ġsettle": 4259,
      "Ġappears": 4260,
      "Ġcells": 4261,
      "Ġwidth": 4262,
      "augh": 4263,
      "Ġmagnetic": 4264,
      "Ġparall": 4265,
      "Ġsuggests": 4266,
      "metallic": 4267,
      "Ġceramics": 4268,
      "Ġinfluence": 4269,
      "Ġsugar": 4270,
      "Ġchromium": 4271,
      "Ġabandoned": 4272,
      "ĠWilliam": 4273,
      "ĠJuly": 4274,
      "Ġpercussion": 4275,
      "ĠSeveral": 4276,
      "ĠNovember": 4277,
      "gs": 4278,
      "oper": 4279,
      "ta": 4280,
      "Ġtable": 4281,
      "Ġturb": 4282,
      "Ġaer": 4283,
      "Ġsens": 4284,
      "aland": 4285,
      "enced": 4286,
      "Ġpack": 4287,
      "Ġtough": 4288,
      "Ġrecover": 4289,
      "ĠTur": 4290,
      "Ġever": 4291,
      "Ġproport": 4292,
      "ĠSP": 4293,
      "ĠSm": 4294,
      "Ġonto": 4295,
      "ĠBar": 4296,
      "Ġwhole": 4297,
      "roup": 4298,
      "Ġ28": 4299,
      "ĠNorthern": 4300,
      "ĠREDD": 4301,
      "rane": 4302,
      "amples": 4303,
      "ologist": 4304,
      "Ġappropriate": 4305,
      "phas": 4306,
      "Ġregular": 4307,
      "Ġscience": 4308,
      "Ġunderground": 4309,
      "ĠAlumin": 4310,
      "Ġsubs": 4311,
      "Ġtransp": 4312,
      "Ġtransform": 4313,
      "Ġphot": 4314,
      "Ġpurch": 4315,
      "Ġattract": 4316,
      "Ġcommunic": 4317,
      "Ġtraditionally": 4318,
      "Ġhighest": 4319,
      "oxid": 4320,
      "Ġmarks": 4321,
      "Ġindicate": 4322,
      "Ġperformed": 4323,
      "Ġprojects": 4324,
      "Ġsmooth": 4325,
      "Ġreceived": 4326,
      "Ġexperimental": 4327,
      "Ġaggreg": 4328,
      "rometallurgy": 4329,
      "Ġacquired": 4330,
      "Ġnegative": 4331,
      "Ġexposure": 4332,
      "Ġfully": 4333,
      "OC": 4334,
      "equ": 4335,
      "iking": 4336,
      "uels": 4337,
      "Åį": 4338,
      "Ġcub": 4339,
      "atural": 4340,
      "Ġmart": 4341,
      "Ġcond": 4342,
      "Ġgal": 4343,
      "Ġprogress": 4344,
      "ĠCent": 4345,
      "ĠSi": 4346,
      "ĠSep": 4347,
      "Ġuser": 4348,
      "Ġalready": 4349,
      "Ġalcohol": 4350,
      "Ġirons": 4351,
      "Ġenab": 4352,
      "ĠUnder": 4353,
      "Ġyet": 4354,
      "Ġwoodworking": 4355,
      "Ġdisloc": 4356,
      "ĠKil": 4357,
      "Ġraised": 4358,
      "Ġsteelmaking": 4359,
      "Ġcloth": 4360,
      "Ġextensive": 4361,
      "ĠVictor": 4362,
      "liott": 4363,
      "Ġmodels": 4364,
      "Ġemphas": 4365,
      "Ġaccur": 4366,
      "Ġcapable": 4367,
      "Ġeffectively": 4368,
      "Ġ2010": 4369,
      "Ġdefinition": 4370,
      "Ġchemicals": 4371,
      "Ġeastern": 4372,
      "Ġfactory": 4373,
      "Ġrisks": 4374,
      "Ġmachines": 4375,
      "Ġshowed": 4376,
      "Ġveget": 4377,
      "Ġdetermined": 4378,
      "Ġannual": 4379,
      "Ġsurvive": 4380,
      "Ġduct": 4381,
      "ĠPyrolysis": 4382,
      "ĠBiochar": 4383,
      "ĠÂ£": 4384,
      "thracite": 4385,
      "Ġphosphorus": 4386,
      "ĠStandard": 4387,
      "Ġrelationship": 4388,
      "Ġtoxic": 4389,
      "Ġequivalent": 4390,
      "):": 4391,
      "75": 4392,
      "^{": 4393,
      "iar": 4394,
      "uals": 4395,
      "yal": 4396,
      "»¿": 4397,
      "ï»¿": 4398,
      "redu": 4399,
      "Ġcracking": 4400,
      "enance": 4401,
      "Ġbrought": 4402,
      "Ġpos": 4403,
      "Ġpile": 4404,
      "arro": 4405,
      "ete": 4406,
      "urs": 4407,
      "Ġeast": 4408,
      "Ġgl": 4409,
      "Ġgro": 4410,
      "Ġaspect": 4411,
      "Ġprop": 4412,
      "Ġproced": 4413,
      "ests": 4414,
      "Ġstable": 4415,
      "adem": 4416,
      "ĠHistor": 4417,
      "ĠFire": 4418,
      "ĠForm": 4419,
      "anding": 4420,
      "Ġvar": 4421,
      "Ġshrinkage": 4422,
      "Ġrub": 4423,
      "Ġsections": 4424,
      "ĠGreen": 4425,
      "ĠLumber": 4426,
      "Ġplate": 4427,
      "ĠKore": 4428,
      "Ġoutdoor": 4429,
      "Ġregener": 4430,
      "Ġreduces": 4431,
      "Ġwhereas": 4432,
      "Ġeffort": 4433,
      "Ġoperated": 4434,
      "Ġsym": 4435,
      "Ġharder": 4436,
      "Ġtransformation": 4437,
      "Ġsignals": 4438,
      "Ġfinan": 4439,
      "Ġexperience": 4440,
      "Ġprecious": 4441,
      "ĠAdditionally": 4442,
      "Ġecological": 4443,
      "Ġincreasingly": 4444,
      "ĠElliott": 4445,
      "Ġreleased": 4446,
      "board": 4447,
      "Ġvessel": 4448,
      "Ġhistorical": 4449,
      "Ġprepared": 4450,
      "ĠPottery": 4451,
      "Ġfratern": 4452,
      "Ġhorizontal": 4453,
      "ĠJanuary": 4454,
      "hand": 4455,
      "ka": 4456,
      "rons": 4457,
      "zil": 4458,
      "Ġsac": 4459,
      "Ġfisher": 4460,
      "Ġmis": 4461,
      "Ġmolec": 4462,
      "iter": 4463,
      "itude": 4464,
      "Ġdow": 4465,
      "Ġthrust": 4466,
      "ĠAD": 4467,
      "ĠCentral": 4468,
      "owie": 4469,
      "Ġanvils": 4470,
      "ĠPen": 4471,
      "Ġshale": 4472,
      "ĠLater": 4473,
      "Ġleather": 4474,
      "Ġ1950": 4475,
      "Ġresin": 4476,
      "ĠUp": 4477,
      "Ġperhaps": 4478,
      "Ġspir": 4479,
      "Ġquite": 4480,
      "Ġrefining": 4481,
      "Ġgrade": 4482,
      "Ġshear": 4483,
      "Ġperiods": 4484,
      "Ġcurved": 4485,
      "Ġcharacteristic": 4486,
      "Ġinitially": 4487,
      "Ġfields": 4488,
      "Ġfluid": 4489,
      "ĠTraining": 4490,
      "Ġsoldiers": 4491,
      "avalry": 4492,
      "ĠMinerals": 4493,
      "Ġprinciple": 4494,
      "Ġagricultural": 4495,
      "Ġplatform": 4496,
      "Ġmyth": 4497,
      "ĠCeram": 4498,
      "Ġdegree": 4499,
      "Ġfossil": 4500,
      "Ġnitrogen": 4501,
      "Ġmagnesium": 4502,
      "Ġbacteria": 4503,
      "Ġbiodiversity": 4504,
      "ouncil": 4505,
      "Ġparallel": 4506,
      "300": 4507,
      "IM": 4508,
      "action": 4509,
      "cript": 4510,
      "Ġur": 4511,
      "Ġtu": 4512,
      "inary": 4513,
      "Ġcup": 4514,
      "Ġbainite": 4515,
      "Ġpipe": 4516,
      "Ġdig": 4517,
      "Ġrepe": 4518,
      "ĠTwo": 4519,
      "ĠIl": 4520,
      "amm": 4521,
      "Ġstain": 4522,
      "Ġstores": 4523,
      "osion": 4524,
      "Ġdead": 4525,
      "umps": 4526,
      "ĠFurther": 4527,
      "ĠEven": 4528,
      "Ġvaries": 4529,
      "Ġshare": 4530,
      "Ġships": 4531,
      "Ġsearch": 4532,
      "ĠLa": 4533,
      "Ġleaving": 4534,
      "Ġcontamin": 4535,
      "ĠOpen": 4536,
      "soku": 4537,
      "key": 4538,
      "Ġcarry": 4539,
      "cope": 4540,
      "Ġplane": 4541,
      "Ġdespite": 4542,
      "Ġevolved": 4543,
      "Ġagree": 4544,
      "Ġregul": 4545,
      "Ġscabb": 4546,
      "Ġrelig": 4547,
      "Ġ2011": 4548,
      "Ġ2012": 4549,
      "Ġferrous": 4550,
      "ĠZe": 4551,
      "ipping": 4552,
      "Ġfibres": 4553,
      "Ġsafe": 4554,
      "Ġrarely": 4555,
      "Ġcellulosic": 4556,
      "Ġspeed": 4557,
      "Ġtitanium": 4558,
      "Ġwaters": 4559,
      "ĠFirst": 4560,
      "Ġarrange": 4561,
      "Ġlinked": 4562,
      "Ġincorpor": 4563,
      "Ġsleep": 4564,
      "arthenware": 4565,
      "64": 4566,
      "EC": 4567,
      "ih": 4568,
      "lom": 4569,
      "oz": 4570,
      "erate": 4571,
      "Ġcry": 4572,
      "Ġfaces": 4573,
      "Ġmention": 4574,
      "Ġbore": 4575,
      "roy": 4576,
      "oulos": 4577,
      "ctic": 4578,
      "Ġlive": 4579,
      "Ġho": 4580,
      "Ġhost": 4581,
      "oll": 4582,
      "omas": 4583,
      "Ġnan": 4584,
      "ĠAG": 4585,
      "ĠAug": 4586,
      "utch": 4587,
      "ading": 4588,
      "nship": 4589,
      "ĠBB": 4590,
      "ĠBro": 4591,
      "Ġsuff": 4592,
      "ĠPin": 4593,
      "ĠPort": 4594,
      "ĠFer": 4595,
      "Ġvil": 4596,
      "Ġrural": 4597,
      "Ġseed": 4598,
      "izations": 4599,
      "ĠGroup": 4600,
      "Ġroom": 4601,
      "iana": 4602,
      "ĠJames": 4603,
      "Ġtemper": 4604,
      "Ġblue": 4605,
      "Ġpole": 4606,
      "ansion": 4607,
      "Ġcreates": 4608,
      "Ġaccomp": 4609,
      "Ġinstrum": 4610,
      "Ġ2019": 4611,
      "Ġgrip": 4612,
      "Ġappeared": 4613,
      "Ġstarting": 4614,
      "Ġmaintenance": 4615,
      "Ġperformance": 4616,
      "Ġservice": 4617,
      "ĠBrazil": 4618,
      "Ġselection": 4619,
      "Ġdevices": 4620,
      "Ġecosystems": 4621,
      "ĠCounty": 4622,
      "Ġbrick": 4623,
      "Ġmaximum": 4624,
      "Ġcustom": 4625,
      "Ġbegins": 4626,
      "Ġconventional": 4627,
      "ĠEnvironmental": 4628,
      "Ġgraphite": 4629,
      "Ġresearchers": 4630,
      "%,": 4631,
      "AR": 4632,
      "lined": 4633,
      "ple": 4634,
      "yles": 4635,
      "ĠX": 4636,
      "Ġtropical": 4637,
      "Ġaware": 4638,
      "Ġcree": 4639,
      "Ġsalt": 4640,
      "Ġfro": 4641,
      "encing": 4642,
      "Ġmoved": 4643,
      "Ġmiles": 4644,
      "Ġware": 4645,
      "organ": 4646,
      "Ġtowards": 4647,
      "Ġliv": 4648,
      "Ġlisted": 4649,
      "Ġreasons": 4650,
      "olid": 4651,
      "Ġconsequ": 4652,
      "Ġgain": 4653,
      "irch": 4654,
      "Ġnaval": 4655,
      "tee": 4656,
      "tex": 4657,
      "ĠCour": 4658,
      "ĠSub": 4659,
      "Ġones": 4660,
      "ĠMarch": 4661,
      "umes": 4662,
      "opoulos": 4663,
      "ĠHamp": 4664,
      "Ġchair": 4665,
      "asty": 4666,
      "Ġsector": 4667,
      "ibr": 4668,
      "ĠLoc": 4669,
      "Ġleaching": 4670,
      "Ġmanaged": 4671,
      "Ġsteps": 4672,
      "igned": 4673,
      "ernal": 4674,
      "Ġdecom": 4675,
      "Ġhands": 4676,
      "Ġcreation": 4677,
      "Ġparticle": 4678,
      "Ġelectroly": 4679,
      "Ġpeak": 4680,
      "Ġinstit": 4681,
      "Ġinstance": 4682,
      "Ġadding": 4683,
      "Ġcombat": 4684,
      "Ġlands": 4685,
      "Ġinvolve": 4686,
      "Ġmedic": 4687,
      "Ġsoftwood": 4688,
      "iction": 4689,
      "Ġ2021": 4690,
      "Ġmarked": 4691,
      "Ġstronger": 4692,
      "ĠCanopy": 4693,
      "Ġshell": 4694,
      "Ġrequirements": 4695,
      "Ġcathod": 4696,
      "Ġdiscuss": 4697,
      "Ġestablish": 4698,
      "Ġ1960": 4699,
      "Ġcircum": 4700,
      "Ġcircular": 4701,
      "Ġindividuals": 4702,
      "Ġslowly": 4703,
      "Ġhorse": 4704,
      "Ġcruc": 4705,
      "Ġimplementation": 4706,
      "irable": 4707,
      "Ġwalkway": 4708,
      "ĠCabinet": 4709,
      "ĠBBOC": 4710,
      ");": 4711,
      "RC": 4712,
      "cut": 4713,
      "ios": 4714,
      "ients": 4715,
      "Ã¨": 4716,
      "Ġcavalry": 4717,
      "Ġsch": 4718,
      "Ġfo": 4719,
      "Ġfilt": 4720,
      "Ġbig": 4721,
      "isions": 4722,
      "Ġinner": 4723,
      "Ġdrop": 4724,
      "Ġdovetail": 4725,
      "Ġlif": 4726,
      "ĠTree": 4727,
      "olk": 4728,
      "olin": 4729,
      "Ġbearing": 4730,
      "irt": 4731,
      "iring": 4732,
      "ĠWund": 4733,
      "Ġlearn": 4734,
      "Ġcontribut": 4735,
      "Ġadze": 4736,
      "ensis": 4737,
      "Ġdisplay": 4738,
      "Ġgene": 4739,
      "Ġgenetic": 4740,
      "Ġdecided": 4741,
      "Ġblock": 4742,
      "Ġoccasion": 4743,
      "pending": 4744,
      "Ġstrateg": 4745,
      "Ġdeforestation": 4746,
      "ĠNorway": 4747,
      "Ġends": 4748,
      "Ġfollows": 4749,
      "ondon": 4750,
      "Ġtrunk": 4751,
      "Ġretreat": 4752,
      "Ġeconomy": 4753,
      "oidal": 4754,
      "Ġreporting": 4755,
      "Ġpersonnel": 4756,
      "anned": 4757,
      "ĠExamples": 4758,
      "ĠSecond": 4759,
      "porary": 4760,
      "ifying": 4761,
      "Ġcurrently": 4762,
      "Ġradio": 4763,
      "Ġrelease": 4764,
      "Ġconsiderable": 4765,
      "Ġrailway": 4766,
      "Ġdurable": 4767,
      "Ġsabre": 4768,
      "occulation": 4769,
      "ĠEliopoulos": 4770,
      "ĠKenya": 4771,
      "Cl": 4772,
      "bles": 4773,
      "fired": 4774,
      "hance": 4775,
      "yan": 4776,
      "ĠQ": 4777,
      "Ġille": 4778,
      "Ġtur": 4779,
      "erve": 4780,
      "Ġfill": 4781,
      "Ġmit": 4782,
      "Ġwest": 4783,
      "Ġwomen": 4784,
      "itch": 4785,
      "Ġindu": 4786,
      "Ġdug": 4787,
      "Ġdiversity": 4788,
      "Ġhom": 4789,
      "Ġey": 4790,
      "rab": 4791,
      "cember": 4792,
      "imber": 4793,
      "ĠCamouflage": 4794,
      "ĠSy": 4795,
      "ama": 4796,
      "Ġstation": 4797,
      "ĠMes": 4798,
      "Ġmember": 4799,
      "term": 4800,
      "ĠBIF": 4801,
      "ĠPA": 4802,
      "acy": 4803,
      "ĠDutch": 4804,
      "Ġru": 4805,
      "Ġrules": 4806,
      "ĠLake": 4807,
      "Ġleaf": 4808,
      "ĠOut": 4809,
      "ously": 4810,
      "Ġwheel": 4811,
      "ĠThomas": 4812,
      "Ġindigenous": 4813,
      "ditional": 4814,
      "Ġbecoming": 4815,
      "weight": 4816,
      "Ġcolli": 4817,
      "Ġ185": 4818,
      "Ġmills": 4819,
      "Ġpots": 4820,
      "ĠDecember": 4821,
      "Ġaddress": 4822,
      "Ġretou": 4823,
      "Ġpossibly": 4824,
      "Ġolder": 4825,
      "temperature": 4826,
      "Ġdepends": 4827,
      "Ġarchaeologists": 4828,
      "Ġguid": 4829,
      "Ġresistant": 4830,
      "Ġserve": 4831,
      "Ġpaint": 4832,
      "Ġpainted": 4833,
      "Ġpassed": 4834,
      "Ġgovernance": 4835,
      "Ġconverted": 4836,
      "Ġfamil": 4837,
      "Ġminimum": 4838,
      "Ġprograms": 4839,
      "Ġvarying": 4840,
      "Ġpoison": 4841,
      "ĠRepublic": 4842,
      "Ġnarrow": 4843,
      "ĠSpecial": 4844,
      "Ġkilometres": 4845,
      "copic": 4846,
      "Ġcreep": 4847,
      "ĠHampden": 4848,
      "eor": 4849,
      "Ã³": 4850,
      "Ġions": 4851,
      "onic": 4852,
      "Ġsod": 4853,
      "Ġmorph": 4854,
      "Ġbones": 4855,
      "iced": 4856,
      "icip": 4857,
      "Ġconce": 4858,
      "Ġbee": 4859,
      "Ġgives": 4860,
      "ĠCre": 4861,
      "ested": 4862,
      "ĠSouthern": 4863,
      "osen": 4864,
      "ĠHem": 4865,
      "see": 4866,
      "section": 4867,
      "resh": 4868,
      "ĠWrought": 4869,
      "acific": 4870,
      "Ġmetallurgical": 4871,
      "Ġrule": 4872,
      "Ġsevere": 4873,
      "arded": 4874,
      "ĠLt": 4875,
      "Ġ1920": 4876,
      "Ġplates": 4877,
      "Ġtravel": 4878,
      "Ġlocations": 4879,
      "Ġhandles": 4880,
      "Ġvariation": 4881,
      "ĠArt": 4882,
      "Ġ2008": 4883,
      "ĠRef": 4884,
      "Ġelev": 4885,
      "Ġsupported": 4886,
      "Ġdependent": 4887,
      "Ġbroken": 4888,
      "ĠCarpent": 4889,
      "century": 4890,
      "ĠSea": 4891,
      "Ġshaping": 4892,
      "Ġcarpenter": 4893,
      "Ġobserved": 4894,
      "Ġcollection": 4895,
      "Ġmirrors": 4896,
      "Ġidea": 4897,
      "Ġnetwork": 4898,
      "Ġagriculture": 4899,
      "Ġcarbide": 4900,
      "Ġcycle": 4901,
      "Ġunderstanding": 4902,
      "Ġchallenges": 4903,
      "ĠYork": 4904,
      "ĠAssociation": 4905,
      "aught": 4906,
      "Ġmartens": 4907,
      "ĠSeptember": 4908,
      "ĠZealand": 4909,
      "ĠAugust": 4910,
      "ĠWundowie": 4911,
      "called": 4912,
      "high": 4913,
      "las": 4914,
      "na": 4915,
      "rin": 4916,
      "rist": 4917,
      "ÃĹ": 4918,
      "Ġ.": 4919,
      "edged": 4920,
      "Ġfaster": 4921,
      "Ġfuels": 4922,
      "Ġmer": 4923,
      "Ġmig": 4924,
      "Ġmud": 4925,
      "Ġwire": 4926,
      "itting": 4927,
      "Ġban": 4928,
      "orter": 4929,
      "Ġpoured": 4930,
      "ola": 4931,
      "ĠIm": 4932,
      "imal": 4933,
      "ĠCode": 4934,
      "ĠSel": 4935,
      "Ġstruck": 4936,
      "advant": 4937,
      "Ġabs": 4938,
      "ĠMex": 4939,
      "ĠBoth": 4940,
      "opol": 4941,
      "Ġshot": 4942,
      "Ġ22": 4943,
      "ĠLar": 4944,
      "Ġenhance": 4945,
      "Ġnoted": 4946,
      "Ġars": 4947,
      "Ġotherwise": 4948,
      "Ġtraffic": 4949,
      "ĠChile": 4950,
      "Ġextent": 4951,
      "ructure": 4952,
      "Ġoverall": 4953,
      "Ġjew": 4954,
      "Ġdecades": 4955,
      "hesis": 4956,
      "Ġ45": 4957,
      "Ġsolar": 4958,
      "Ġsheet": 4959,
      "Ġopening": 4960,
      "rients": 4961,
      "Ġproperty": 4962,
      "Ġbasis": 4963,
      "Ġeconomically": 4964,
      "Ġmanufacturers": 4965,
      "Ġfacilit": 4966,
      "Ġtesting": 4967,
      "Ġsharpen": 4968,
      "Ġporous": 4969,
      "Ġdyn": 4970,
      "ĠCanadian": 4971,
      "Ġquantity": 4972,
      "Ġcrystalline": 4973,
      "Ġclosely": 4974,
      "ĠCommunity": 4975,
      "Ġextended": 4976,
      "Ġsubsequently": 4977,
      "ĠResearch": 4978,
      "Ġdomestic": 4979,
      "ĠValley": 4980,
      "Ġescape": 4981,
      "Ġratio": 4982,
      "Ġfinancial": 4983,
      "CL": 4984,
      "DIS": 4985,
      "aul": 4986,
      "bru": 4987,
      "burn": 4988,
      "com": 4989,
      "gla": 4990,
      "war": 4991,
      "west": 4992,
      "Ġtaking": 4993,
      "inelling": 4994,
      "Ġsal": 4995,
      "Ġsinter": 4996,
      "Ġmal": 4997,
      "ols": 4998,
      "olia": 4999,
      "idges": 5000,
      "ĠASAR": 5001,
      "ivation": 5002,
      "oted": 5003,
      "ials": 5004,
      "isting": 5005,
      "ĠPacific": 5006,
      "ĠHer": 5007,
      "ĠEP": 5008,
      "Ġexceed": 5009,
      "Ġexpected": 5010,
      "Ġchips": 5011,
      "Ġsemi": 5012,
      "ogen": 5013,
      "ĠLondon": 5014,
      "ĠOver": 5015,
      "Ġadsorption": 5016,
      "Ġelimin": 5017,
      "Ġflash": 5018,
      "Ġ183": 5019,
      "Ġexpansion": 5020,
      "ĠVari": 5021,
      "Ġcorn": 5022,
      "ĠForging": 5023,
      "Ġconstitu": 5024,
      "Ġoffers": 5025,
      "Ġphases": 5026,
      "Ġ2017": 5027,
      "Ġoccurring": 5028,
      "Ġ2009": 5029,
      "Ġcontinue": 5030,
      "Ġworldwide": 5031,
      "Ġ70": 5032,
      "Ġfactor": 5033,
      "ĠProcess": 5034,
      "version": 5035,
      "Ġhelps": 5036,
      "Ġmajority": 5037,
      "Ġcrushed": 5038,
      "Ġfiber": 5039,
      "Ġintroduction": 5040,
      "Ġsulfuric": 5041,
      "Ġpromote": 5042,
      "Ġcabinets": 5043,
      "Ġmountain": 5044,
      "Ġextreme": 5045,
      "Ġclaimed": 5046,
      "Ġpersonal": 5047,
      "ĠSODIS": 5048,
      "Ġingred": 5049,
      "Ġcementite": 5050,
      "Ġscientific": 5051,
      "Ġmonitoring": 5052,
      "Ġinsects": 5053,
      "Ġabundant": 5054,
      "Ġliterature": 5055,
      "ĠDepartment": 5056,
      "ĠGovernment": 5057,
      "Ġbirds": 5058,
      "Ġpermanent": 5059,
      "ĠASARCO": 5060,
      "ders": 5061,
      "from": 5062,
      "kal": 5063,
      "ype": 5064,
      "Äĥ": 5065,
      "heast": 5066,
      "Ġfly": 5067,
      "Ġfilled": 5068,
      "ena": 5069,
      "Ġbars": 5070,
      "rote": 5071,
      "Ġda": 5072,
      "ider": 5073,
      "Ġnav": 5074,
      "Ġanode": 5075,
      "Ġmeant": 5076,
      "duct": 5077,
      "Ġkilled": 5078,
      "Ġrise": 5079,
      "Ġritual": 5080,
      "Ġenfor": 5081,
      "Ġsofter": 5082,
      "pose": 5083,
      "aken": 5084,
      "Ġrefinery": 5085,
      "angu": 5086,
      "ĠWhite": 5087,
      "Ġ400": 5088,
      "Ġdifferences": 5089,
      "Ġemission": 5090,
      "worth": 5091,
      "ĠRev": 5092,
      "Ġconcentrated": 5093,
      "Ġsett": 5094,
      "Ġdrills": 5095,
      "Ġmelted": 5096,
      "ĠAfrican": 5097,
      "Ġmatter": 5098,
      "rises": 5099,
      "ĠFebru": 5100,
      "Ġcattle": 5101,
      "rapy": 5102,
      "Ġelectricity": 5103,
      "Ġbenefit": 5104,
      "Ġreadily": 5105,
      "mitted": 5106,
      "Ġporosity": 5107,
      "ĠDespite": 5108,
      "Ġroughly": 5109,
      "Ġcollected": 5110,
      "Ġdestroy": 5111,
      "Ġdispers": 5112,
      "Ġwelding": 5113,
      "minist": 5114,
      "Ġassemblages": 5115,
      "celain": 5116,
      "ĠIndustrial": 5117,
      "ĠRussia": 5118,
      "Ġdangerous": 5119,
      "Ġreserves": 5120,
      "Ġcylind": 5121,
      "Ġcommissioned": 5122,
      "Ġproportion": 5123,
      "Ġcondens": 5124,
      "Ġoccasionally": 5125,
      "ĠFebruary": 5126,
      "100": 5127,
      "AF": 5128,
      "aft": 5129,
      "ij": 5130,
      "ked": 5131,
      "nov": 5132,
      "off": 5133,
      "ÃŃ": 5134,
      "Ġrou": 5135,
      "Ġcave": 5136,
      "alities": 5137,
      "Ġmor": 5138,
      "Ġmort": 5139,
      "Ġwent": 5140,
      "Ġbits": 5141,
      "Ġphen": 5142,
      "Ġpipes": 5143,
      "Ġlining": 5144,
      "Ġrein": 5145,
      "oled": 5146,
      "Ġerect": 5147,
      "Ġcone": 5148,
      "Ġcones": 5149,
      "Ġbeam": 5150,
      "ĠAut": 5151,
      "ĠCouncil": 5152,
      "ĠSand": 5153,
      "ada": 5154,
      "abil": 5155,
      "unt": 5156,
      "ĠHam": 5157,
      "ĠEach": 5158,
      "ĠWalk": 5159,
      "Ġchim": 5160,
      "Ġheart": 5161,
      "thers": 5162,
      "ective": 5163,
      "emb": 5164,
      "Ġprey": 5165,
      "Ġsport": 5166,
      "Ġdiscovery": 5167,
      "ificial": 5168,
      "Ġquestion": 5169,
      "Ġoutput": 5170,
      "Ġundert": 5171,
      "Ġhardening": 5172,
      "Ġinvent": 5173,
      "Ġinvented": 5174,
      "jected": 5175,
      "oving": 5176,
      "Ġdifference": 5177,
      "Ġfinally": 5178,
      "Ġlimits": 5179,
      "ĠDevelop": 5180,
      "ĠNorris": 5181,
      "Ġbelong": 5182,
      "Ġbackground": 5183,
      "ĠCont": 5184,
      "ashion": 5185,
      "Ġadvanced": 5186,
      "Ġsolidification": 5187,
      "Ġexperien": 5188,
      "ĠCharles": 5189,
      "ĠResour": 5190,
      "ĠIsa": 5191,
      "Ġanti": 5192,
      "Ġlaws": 5193,
      "Ġwildlife": 5194,
      "Ġarrows": 5195,
      "Ġnutrients": 5196,
      "Ġadvantages": 5197,
      "ĠCamping": 5198,
      "ĠHarz": 5199,
      "related": 5200,
      "Ġpulp": 5201,
      "ĠÃĹ": 5202,
      "Ġrecycled": 5203,
      "Ġsubsequent": 5204,
      "Ġshallow": 5205,
      "Ġchoice": 5206,
      "ederal": 5207,
      "Ġchopping": 5208,
      "Ġsubstantial": 5209,
      "ĠSPL": 5210,
      "Ġsymmet": 5211,
      "Ġfraternity": 5212,
      "Ġdynasty": 5213,
      "65": 5214,
      "back": 5215,
      "dale": 5216,
      "fect": 5217,
      "lin": 5218,
      "made": 5219,
      "uits": 5220,
      "vens": 5221,
      "year": 5222,
      "Ġcord": 5223,
      "atile": 5224,
      "Ġfraction": 5225,
      "Ġbog": 5226,
      "ano": 5227,
      "Ġrect": 5228,
      "olf": 5229,
      "ombe": 5230,
      "Ġconcess": 5231,
      "imate": 5232,
      "ody": 5233,
      "Ġusage": 5234,
      "Ġalt": 5235,
      "Ġalone": 5236,
      "ĠMines": 5237,
      "ĠMuseum": 5238,
      "ĠPres": 5239,
      "Ġmetric": 5240,
      "Ġkit": 5241,
      "Ġchosen": 5242,
      "ĠDiff": 5243,
      "Ġseems": 5244,
      "ĠNations": 5245,
      "Ġenhan": 5246,
      "ĠOak": 5247,
      "Ġnotably": 5248,
      "ĠUSA": 5249,
      "Ġadsorb": 5250,
      "Ġouter": 5251,
      "Ġcolours": 5252,
      "Ġfeather": 5253,
      "Ġsolutions": 5254,
      "Ġboards": 5255,
      "Ġ600": 5256,
      "vention": 5257,
      "Ġpurity": 5258,
      "Ġeduc": 5259,
      "Ġconcentrations": 5260,
      "ĠConstruction": 5261,
      "}}+": 5262,
      "Ġsetting": 5263,
      "Ġpigments": 5264,
      "Ġalloying": 5265,
      "Ġserious": 5266,
      "Ġindicates": 5267,
      "ĠIsland": 5268,
      "Ġexclus": 5269,
      "Ġmeasures": 5270,
      "Ġmeasured": 5271,
      "Ġgreenhouse": 5272,
      "Ġfilter": 5273,
      "Ġchanged": 5274,
      "Ġencoura": 5275,
      "Ġlogs": 5276,
      "umbers": 5277,
      "Ġprofess": 5278,
      "ĠCommission": 5279,
      "Ġofficers": 5280,
      "ethite": 5281,
      "Ġcompetition": 5282,
      "Ġjoined": 5283,
      "Ġideal": 5284,
      "Ġsituation": 5285,
      "Ġownership": 5286,
      "ellulosic": 5287,
      "Ġpercentage": 5288,
      "Ġbehavior": 5289,
      "ĠArchae": 5290,
      "Ġquenching": 5291,
      "ĠProduction": 5292,
      "Ġmicrostructure": 5293,
      "ĠPaleolithic": 5294,
      "Ġcolliery": 5295,
      "'.": 5296,
      "23": 5297,
      "35": 5298,
      "iol": 5299,
      "ki": 5300,
      "pse": 5301,
      "vity": 5302,
      "Ġice": 5303,
      "Ġaest": 5304,
      "inning": 5305,
      "onal": 5306,
      "Ġsound": 5307,
      "alan": 5308,
      "Ġfresh": 5309,
      "Ġfashion": 5310,
      "itz": 5311,
      "Ġbot": 5312,
      "anish": 5313,
      "Ġdies": 5314,
      "Ġdado": 5315,
      "Ġhomin": 5316,
      "Ġhyp": 5317,
      "ste": 5318,
      "idian": 5319,
      "Ġgave": 5320,
      "Ġgiving": 5321,
      "ĠCu": 5322,
      "ĠCur": 5323,
      "oday": 5324,
      "umed": 5325,
      "ĠEr": 5326,
      "ĠEastern": 5327,
      "ocene": 5328,
      "emer": 5329,
      "iburg": 5330,
      "Ġ1930": 5331,
      "coforestry": 5332,
      "posal": 5333,
      "Ġfirm": 5334,
      "rowing": 5335,
      "Ġreprodu": 5336,
      "Ġactual": 5337,
      "Ġdecision": 5338,
      "Ġleads": 5339,
      "Ġdoors": 5340,
      "Ġlimonite": 5341,
      "Ġresulted": 5342,
      "Ġstudents": 5343,
      "Ġinterior": 5344,
      "Ġ2005": 5345,
      "Ġ2007": 5346,
      "Ġsulfides": 5347,
      "Ġconcentrates": 5348,
      "Ġseparated": 5349,
      "apped": 5350,
      "Ġgreatly": 5351,
      "Ġflux": 5352,
      "ĠSmelter": 5353,
      "Ġinvestment": 5354,
      "ĠMineral": 5355,
      "Ġdevice": 5356,
      "Ġvertical": 5357,
      "Ġcategories": 5358,
      "nership": 5359,
      "ĠConservation": 5360,
      "ĠInstitute": 5361,
      "luding": 5362,
      "Ġextensively": 5363,
      "ĠElectric": 5364,
      "Ġmillennium": 5365,
      "Ġcubic": 5366,
      "Ġpositive": 5367,
      "Ġrepeated": 5368,
      "ĠAGF": 5369,
      "Ġillegal": 5370,
      "28": 5371,
      "DF": 5372,
      "die": 5373,
      "fl": 5374,
      "hole": 5375,
      "iary": 5376,
      "lock": 5377,
      "mod": 5378,
      "she": 5379,
      "tan": 5380,
      "inting": 5381,
      "hens": 5382,
      "ref": 5383,
      "Ġsent": 5384,
      "Ġsense": 5385,
      "Ġfencing": 5386,
      "Ġwares": 5387,
      "itan": 5388,
      "orns": 5389,
      "Ġpin": 5390,
      "Ġlb": 5391,
      "Ġhilt": 5392,
      "omic": 5393,
      "ĠAng": 5394,
      "ĠCE": 5395,
      "ulner": 5396,
      "Ġstop": 5397,
      "Ġalkal": 5398,
      "ĠMal": 5399,
      "umn": 5400,
      "ĠBreed": 5401,
      "Ġexact": 5402,
      "Ġchis": 5403,
      "asters": 5404,
      "Ġ27": 5405,
      "orting": 5406,
      "Ġcook": 5407,
      "ogene": 5408,
      "Ġcontamination": 5409,
      "ĠOre": 5410,
      "keys": 5411,
      "Ġneigh": 5412,
      "Ġarr": 5413,
      "ĠUse": 5414,
      "Ġmanner": 5415,
      "Ġdisadvant": 5416,
      "Ġwaterproof": 5417,
      "Ġcarbonate": 5418,
      "Ġexternal": 5419,
      "Ġ184": 5420,
      "Ġactually": 5421,
      "Ġpolished": 5422,
      "Ġgenerate": 5423,
      "Ġsilvopast": 5424,
      "Ġpotentially": 5425,
      "ĠUnlike": 5426,
      "ometallurgy": 5427,
      "aeolithic": 5428,
      "facts": 5429,
      "Ġstudied": 5430,
      "Ġpointed": 5431,
      "conomic": 5432,
      "Ġtrim": 5433,
      "ushing": 5434,
      "Ġ2022": 5435,
      "Ġdescribes": 5436,
      "ĠIslam": 5437,
      "axes": 5438,
      "Ġpredators": 5439,
      "Ġglasses": 5440,
      "Ġnames": 5441,
      "Ġturned": 5442,
      "Ġsuspend": 5443,
      "Ġsample": 5444,
      "ĠDisston": 5445,
      "Ġregarding": 5446,
      "Ġattempts": 5447,
      "Ġchemistry": 5448,
      "Ġfruit": 5449,
      "Ġargue": 5450,
      "Ġcavity": 5451,
      "Ġprinciples": 5452,
      "Ġthousands": 5453,
      "Ġpenet": 5454,
      "ĠFreiburg": 5455,
      "Ġdetailed": 5456,
      "ĠFormation": 5457,
      "ĠPAVN": 5458,
      "Ġmartensite": 5459,
      "ĠMexico": 5460,
      "ĠBreedon": 5461,
      "24": 5462,
      "MS": 5463,
      "\\%{\\": 5464,
      "lite": 5465,
      "mark": 5466,
      "oe": 5467,
      "pers": 5468,
      "then": 5469,
      "ued": 5470,
      "wing": 5471,
      "inage": 5472,
      "Ġfair": 5473,
      "Ġble": 5474,
      "Ġbirch": 5475,
      "ĠpH": 5476,
      "anc": 5477,
      "icular": 5478,
      "elly": 5479,
      "Ġlith": 5480,
      "Ġlaid": 5481,
      "Ġreven": 5482,
      "Ġreaching": 5483,
      "Ġeight": 5484,
      "Ġearthenware": 5485,
      "stock": 5486,
      "Ġconversion": 5487,
      "Ġforced": 5488,
      "idity": 5489,
      "ĠAma": 5490,
      "ĠSur": 5491,
      "ĠSlag": 5492,
      "ĠSoci": 5493,
      "ulph": 5494,
      "Ġ150": 5495,
      "ĠMark": 5496,
      "ĠBess": 5497,
      "ĠBay": 5498,
      "quality": 5499,
      "ĠEmp": 5500,
      "ĠWales": 5501,
      "Ġking": 5502,
      "ĠDou": 5503,
      "ĠNickel": 5504,
      "ĠThat": 5505,
      "Ġplaster": 5506,
      "Ġspray": 5507,
      "ĠKe": 5508,
      "Ġapply": 5509,
      "Ġundergo": 5510,
      "Ġdecoration": 5511,
      "Ġblood": 5512,
      "Ġcastings": 5513,
      "Ġhardened": 5514,
      "Ġcontainer": 5515,
      "ĠDef": 5516,
      "Ġarticle": 5517,
      "Ġcamps": 5518,
      "Ġcampfire": 5519,
      "iveness": 5520,
      "Ġsoftwoods": 5521,
      "grained": 5522,
      "Ġparam": 5523,
      "Ġreplace": 5524,
      "Ġpredator": 5525,
      "atti": 5526,
      "Ġrotary": 5527,
      "Ġannounced": 5528,
      "Ġporcelain": 5529,
      "ĠBefore": 5530,
      "Ġkinds": 5531,
      "Ġsunlight": 5532,
      "Ġsamples": 5533,
      "Ġparticipation": 5534,
      "Ġsugars": 5535,
      "Ġdissolved": 5536,
      "ĠSoft": 5537,
      "Ġtensile": 5538,
      "Ġrecycling": 5539,
      "Ġrecommended": 5540,
      "Ġranges": 5541,
      "Ġsociety": 5542,
      "Ġdisease": 5543,
      "Ġhazard": 5544,
      "Ġorientation": 5545,
      "Ġflexible": 5546,
      "Ġtailings": 5547,
      "ĠPalaeolithic": 5548,
      "Ġmolecules": 5549,
      "22": 5550,
      "Si": 5551,
      "lation": 5552,
      "ned": 5553,
      "ria": 5554,
      "ux": 5555,
      "zon": 5556,
      "Ġion": 5557,
      "Ġ...": 5558,
      "ream": 5559,
      "Ġoaks": 5560,
      "Ġcrops": 5561,
      "Ġsay": 5562,
      "atz": 5563,
      "alian": 5564,
      "Ġmiss": 5565,
      "Ġbull": 5566,
      "Ġpudd": 5567,
      "ishes": 5568,
      "Ġinch": 5569,
      "arse": 5570,
      "ione": 5571,
      "asks": 5572,
      "oud": 5573,
      "enth": 5574,
      "Ġreli": 5575,
      "ĠToday": 5576,
      "etite": 5577,
      "Ġpros": 5578,
      "ĠCR": 5579,
      "ĠSaf": 5580,
      "Ġstyles": 5581,
      "adel": 5582,
      "ĠMill": 5583,
      "unction": 5584,
      "ĠHyd": 5585,
      "ĠEth": 5586,
      "Ġchalcedony": 5587,
      "Ġ23": 5588,
      "ĠDav": 5589,
      "Ġhapp": 5590,
      "ĠNot": 5591,
      "ĠNaval": 5592,
      "ĠNatural": 5593,
      "Ġincome": 5594,
      "Ġhere": 5595,
      "ĠRet": 5596,
      "ĠRich": 5597,
      "Ġcovers": 5598,
      "ĠLaw": 5599,
      "ĠLatin": 5600,
      "ensland": 5601,
      "Ġpartially": 5602,
      "Ġyour": 5603,
      "Ġspecimens": 5604,
      "Ġ2020": 5605,
      "pha": 5606,
      "phy": 5607,
      "contin": 5608,
      "ĠStud": 5609,
      "Ġsmelt": 5610,
      "Ġoperational": 5611,
      "Ġrecently": 5612,
      "Ġcorrect": 5613,
      "Ġcortex": 5614,
      "Ġdried": 5615,
      "Ġpreserv": 5616,
      "Ġpreserved": 5617,
      "Ġplain": 5618,
      "Ġinstruct": 5619,
      "Ġmonkeys": 5620,
      "Ġdeposited": 5621,
      "Ġsliding": 5622,
      "Ġhammers": 5623,
      "Ġmedical": 5624,
      "Ġprecise": 5625,
      "Ġassociation": 5626,
      "Ġavailability": 5627,
      "ĠZinc": 5628,
      "Ġstresses": 5629,
      "Ġoxidized": 5630,
      "ĠClark": 5631,
      "Ġacidic": 5632,
      "metre": 5633,
      "Ġframing": 5634,
      "Ġconsistent": 5635,
      "Ġmolding": 5636,
      "Ġfamous": 5637,
      "Ġcheaper": 5638,
      "Ġservices": 5639,
      "ĠFlint": 5640,
      "Ġextend": 5641,
      "Ġdivided": 5642,
      "Ġrunning": 5643,
      "Ġentirely": 5644,
      "Ġbulb": 5645,
      "ĠSolar": 5646,
      "Ġreview": 5647,
      "ĠBlacksmith": 5648,
      "ĠPhilipp": 5649,
      "Ġimmediately": 5650,
      "Ġwritten": 5651,
      "Ġvehicles": 5652,
      "ĠQueensland": 5653,
      "Ġsynthetic": 5654,
      "Ġregeneration": 5655,
      "Ġsleeping": 5656,
      "Ġsuspended": 5657,
      "\").": 5658,
      "92": 5659,
      "ball": 5660,
      "dation": 5661,
      "iated": 5662,
      "now": 5663,
      "ncy": 5664,
      "ober": 5665,
      "poration": 5666,
      "Ġtiss": 5667,
      "era": 5668,
      "alse": 5669,
      "Ġwed": 5670,
      "ora": 5671,
      "ani": 5672,
      "Ġden": 5673,
      "elt": 5674,
      "ouis": 5675,
      "Ġlives": 5676,
      "Ġrecon": 5677,
      "olars": 5678,
      "Ġthings": 5679,
      "Ġconne": 5680,
      "ĠImp": 5681,
      "Ġforged": 5682,
      "idala": 5683,
      "choidal": 5684,
      "ĠAges": 5685,
      "ĠThen": 5686,
      "ĠServ": 5687,
      "ĠSimilarly": 5688,
      "Ġsticks": 5689,
      "uts": 5690,
      "Ġ120": 5691,
      "heric": 5692,
      "Ġanthracite": 5693,
      "Ġmag": 5694,
      "ĠPla": 5695,
      "ĠHis": 5696,
      "ĠHud": 5697,
      "Ġvulner": 5698,
      "Ġchalk": 5699,
      "Ġ26": 5700,
      "ĠDerb": 5701,
      "ĠDirect": 5702,
      "Ġhect": 5703,
      "ĠGree": 5704,
      "Ġenem": 5705,
      "ĠOper": 5706,
      "Ġcarrying": 5707,
      "Ġacres": 5708,
      "Ġknapping": 5709,
      "Ġelse": 5710,
      "Ġflood": 5711,
      "Ġsomewh": 5712,
      "uble": 5713,
      "ubric": 5714,
      "Ġrefle": 5715,
      "yshire": 5716,
      "Ġpolitical": 5717,
      "Ġgeneration": 5718,
      "Ġrelative": 5719,
      "Ġaccum": 5720,
      "Ġaxis": 5721,
      "Ġdesignated": 5722,
      "Ġhunt": 5723,
      "Ġ2013": 5724,
      "Ġ2015": 5725,
      "Ġslags": 5726,
      "Ġdetails": 5727,
      "Ġ2002": 5728,
      "ĠRec": 5729,
      "Ġ900": 5730,
      "Ġpowered": 5731,
      "Ġtraditions": 5732,
      "Ġapart": 5733,
      "Ġpeoples": 5734,
      "imental": 5735,
      "ercus": 5736,
      "Ġsupporting": 5737,
      "Ġvalues": 5738,
      "Ġdrawn": 5739,
      "Ġarchaeology": 5740,
      "ĠRescue": 5741,
      "Ġburner": 5742,
      "Ġ2025": 5743,
      "ĠExper": 5744,
      "Ġdescribe": 5745,
      "Ġindicated": 5746,
      "Ġsubstances": 5747,
      "Ġmachinery": 5748,
      "Ġvisual": 5749,
      "hibit": 5750,
      "fracombe": 5751,
      "Ġbranch": 5752,
      "Ġterrit": 5753,
      "Ġdecrease": 5754,
      "Ġdistinctive": 5755,
      "Ġblacksmiths": 5756,
      "Ġprecipitation": 5757,
      "Ġadapted": 5758,
      "Ġhousehold": 5759,
      "Ġmotion": 5760,
      "Ġrecognized": 5761,
      "Ġcrack": 5762,
      "Ġexcessive": 5763,
      "Ġproperly": 5764,
      "Ġmaker": 5765,
      "Ġpreviously": 5766,
      "Ġdimensions": 5767,
      "Ġrecreational": 5768,
      "Ġaccepted": 5769,
      "Ġdegradation": 5770,
      "sword": 5771,
      "Ã±arro": 5772,
      "Ġpolicy": 5773,
      "Ġreligious": 5774,
      "Ġmentioned": 5775,
      "Ġabsence": 5776,
      "ĠBessemer": 5777,
      "ĠDerbyshire": 5778,
      "Ġsomewhat": 5779,
      "Ã±arroya": 5780,
      "95": 5781,
      "AS": 5782,
      "CP": 5783,
      "CZ": 5784,
      "lar": 5785,
      "pret": 5786,
      "vo": 5787,
      "with": 5788,
      "yere": 5789,
      "Ġovers": 5790,
      "edic": 5791,
      "Ġdense": 5792,
      "elines": 5793,
      "Ġlad": 5794,
      "Ġlatt": 5795,
      "Ġlangu": 5796,
      "entation": 5797,
      "ĠTrees": 5798,
      "ĠCreek": 5799,
      "ulating": 5800,
      "ulpt": 5801,
      "Ġstick": 5802,
      "ĠMon": 5803,
      "ĠMic": 5804,
      "ĠBank": 5805,
      "erent": 5806,
      "ĠFishing": 5807,
      "Ġminutes": 5808,
      "ĠNative": 5809,
      "arden": 5810,
      "ippert": 5811,
      "Ġenz": 5812,
      "ĠOchre": 5813,
      "ĠOcean": 5814,
      "Ġformal": 5815,
      "Ġroasting": 5816,
      "asses": 5817,
      "Ġteam": 5818,
      "ĠItalian": 5819,
      "Ġelabor": 5820,
      "Ġapparent": 5821,
      "Ġoutc": 5822,
      "iquity": 5823,
      "Ġextra": 5824,
      "Ġexpanded": 5825,
      "Ġhunter": 5826,
      "Ġattack": 5827,
      "Ġattention": 5828,
      "Ġskill": 5829,
      "hane": 5830,
      "Ġ75": 5831,
      "ĠComplex": 5832,
      "Ġreports": 5833,
      "melting": 5834,
      "Ġ1999": 5835,
      "Ġregional": 5836,
      "Ġsilicate": 5837,
      "Ġburned": 5838,
      "ĠCooking": 5839,
      "Ġbreaking": 5840,
      "Ġburied": 5841,
      "ĠScot": 5842,
      "ĠColle": 5843,
      "urban": 5844,
      "Ġnutr": 5845,
      "Ġissue": 5846,
      "Ġprevents": 5847,
      "unker": 5848,
      "ĠBlast": 5849,
      "Ġtension": 5850,
      "Ġranging": 5851,
      "ĠKuridala": 5852,
      "Ġimmediate": 5853,
      "Ġrespectively": 5854,
      "Ġheavily": 5855,
      "Ġconnected": 5856,
      "Ġfungi": 5857,
      "Ġtrue": 5858,
      "ĠSmall": 5859,
      "ĠVictoria": 5860,
      "ĠUpper": 5861,
      "ĠPinus": 5862,
      "CLOS": 5863,
      "Ġreinfor": 5864,
      "Ġundertaken": 5865,
      "Ġrectang": 5866,
      "Ġlattice": 5867,
      "ipperton": 5868,
      "',": 5869,
      "AM": 5870,
      "aÃ": 5871,
      "down": 5872,
      "ees": 5873,
      "eff": 5874,
      "fare": 5875,
      "green": 5876,
      "lets": 5877,
      "ses": 5878,
      "treat": 5879,
      "uge": 5880,
      "uck": 5881,
      "inction": 5882,
      "oncur": 5883,
      "Ġtheory": 5884,
      "eria": 5885,
      "Ġcal": 5886,
      "Ġsomet": 5887,
      "Ġsought": 5888,
      "esh": 5889,
      "alu": 5890,
      "Ġmild": 5891,
      "Ġwarm": 5892,
      "itime": 5893,
      "Ġbor": 5894,
      "anning": 5895,
      "Ġdenticulate": 5896,
      "Ġlubric": 5897,
      "Ġhorn": 5898,
      "usually": 5899,
      "ĠTent": 5900,
      "ĠTow": 5901,
      "rain": 5902,
      "Ġgun": 5903,
      "Ġnumbers": 5904,
      "ĠChemical": 5905,
      "Ġstability": 5906,
      "uth": 5907,
      "Ġalle": 5908,
      "ellent": 5909,
      "ĠMaterial": 5910,
      "ĠMIM": 5911,
      "ĠBol": 5912,
      "ĠBul": 5913,
      "Ġsuit": 5914,
      "ategy": 5915,
      "Ġshoot": 5916,
      "Ġrust": 5917,
      "Ġcompound": 5918,
      "ouring": 5919,
      "Ġarte": 5920,
      "Ġworn": 5921,
      "Ġspot": 5922,
      "earing": 5923,
      "Ġtraded": 5924,
      "Ġdisin": 5925,
      "Ġelastic": 5926,
      "ĠChrist": 5927,
      "Ġremote": 5928,
      "Ġevap": 5929,
      "Ġtechnological": 5930,
      "Ġscales": 5931,
      "ĠVir": 5932,
      "Ġbuff": 5933,
      "Ġdecline": 5934,
      "new": 5935,
      "Ġcrew": 5936,
      "Ġstrategy": 5937,
      "Ġartists": 5938,
      "fully": 5939,
      "othermic": 5940,
      "Ġprotected": 5941,
      "Ġinfrast": 5942,
      "Ġbring": 5943,
      "Ġfoods": 5944,
      "Ġinvolving": 5945,
      "Ġmedia": 5946,
      "oids": 5947,
      "ĠWorks": 5948,
      "ĠResistance": 5949,
      "grade": 5950,
      "ĠCloncur": 5951,
      "Ġreplacement": 5952,
      "Ġcompleted": 5953,
      "Ġdiscarded": 5954,
      "Ġidentify": 5955,
      "Ġfibre": 5956,
      "Ġbottles": 5957,
      "Ġchanging": 5958,
      "Ġreadiness": 5959,
      "ĠRoyal": 5960,
      "ĠMarine": 5961,
      "riction": 5962,
      "Ġmaintained": 5963,
      "Ġhistoric": 5964,
      "Ġblown": 5965,
      "Ġrecorded": 5966,
      "mediate": 5967,
      "Ġfocused": 5968,
      "ophistic": 5969,
      "Ġundes": 5970,
      "Ġdemonstrated": 5971,
      "Ġ1873": 5972,
      "Ġadjust": 5973,
      "ĠLimited": 5974,
      "Ġfragments": 5975,
      "Ġlicens": 5976,
      "Ġsummer": 5977,
      "Ġceremonial": 5978,
      "ĠGranby": 5979,
      "Ġtoughness": 5980,
      "ĠIlfracombe": 5981,
      "Ġstainless": 5982,
      "Ġregulatory": 5983,
      "Ġtemperate": 5984,
      "Ġinstruments": 5985,
      "Ġawareness": 5986,
      "ĠBIFs": 5987,
      "Ã³n": 5988,
      "Ġtrafficking": 5989,
      "ĠRevolution": 5990,
      "ĠAmazon": 5991,
      "ĠCloncurry": 5992,
      "RA": 5993,
      "SS": 5994,
      "ST": 5995,
      "chen": 5996,
      "end": 5997,
      "fires": 5998,
      "mission": 5999,
      "och": 6000,
      "tre": 6001,
      "}{": 6002,
      "Ġurban": 6003,
      "Ġtang": 6004,
      "Ġtanks": 6005,
      "ero": 6006,
      "erted": 6007,
      "Ġcity": 6008,
      "Ġsale": 6009,
      "Ġsulph": 6010,
      "Ġsophistic": 6011,
      "Ġfold": 6012,
      "Ġmob": 6013,
      "Ġwal": 6014,
      "Ġbind": 6015,
      "Ġbamb": 6016,
      "Ġpenc": 6017,
      "Ġinform": 6018,
      "Ġinnov": 6019,
      "Ġtoler": 6020,
      "iling": 6021,
      "Ġlist": 6022,
      "idents": 6023,
      "Ġgang": 6024,
      "estock": 6025,
      "ĠShe": 6026,
      "otic": 6027,
      "Ġusers": 6028,
      "ĠMode": 6029,
      "ĠBur": 6030,
      "ĠBanded": 6031,
      "thing": 6032,
      "throp": 6033,
      "ĠPers": 6034,
      "ĠEscape": 6035,
      "acent": 6036,
      "Ġvit": 6037,
      "ocrystalline": 6038,
      "Ġproducer": 6039,
      "ĠNear": 6040,
      "Ġcoarse": 6041,
      "ĠOx": 6042,
      "Ġrescu": 6043,
      "Ġformula": 6044,
      "Ġarms": 6045,
      "Ġargu": 6046,
      "loor": 6047,
      "Ġcommod": 6048,
      "Ġstem": 6049,
      "Ġ35": 6050,
      "Ġsculpt": 6051,
      "Ġcorpor": 6052,
      "Ġhandling": 6053,
      "Ġsignalling": 6054,
      "Ġdoor": 6055,
      "ĠAmericans": 6056,
      "Ġimported": 6057,
      "onds": 6058,
      "Ġhydrolysis": 6059,
      "Ġferment": 6060,
      "Ġbridge": 6061,
      "Ġ800": 6062,
      "ylvan": 6063,
      "Ġcontinues": 6064,
      "type": 6065,
      "ĠMetals": 6066,
      "Ġseparation": 6067,
      "Ġshelters": 6068,
      "ĠâĸĦ": 6069,
      "ominal": 6070,
      "Ġcrust": 6071,
      "Ġfibers": 6072,
      "Ġmulti": 6073,
      "Ġbarri": 6074,
      "ungle": 6075,
      "Ġwindow": 6076,
      "regular": 6077,
      "osynt": 6078,
      "Ġinstallation": 6079,
      "Ġdynamic": 6080,
      "Ġsecure": 6081,
      "Ġversion": 6082,
      "Ġelectrodes": 6083,
      "Ġfarmers": 6084,
      "Ġletsoku": 6085,
      "ellulose": 6086,
      "Ġboiling": 6087,
      "Ġventil": 6088,
      "Ġchloride": 6089,
      "ĠGeorge": 6090,
      "Ġbalance": 6091,
      "Ġdiverse": 6092,
      "Ġhouses": 6093,
      "Ġcrypt": 6094,
      "Ġsodium": 6095,
      "Ġarsenic": 6096,
      "Ġdaub": 6097,
      "Ġroute": 6098,
      "Ġconcession": 6099,
      "ET": 6100,
      "aab": 6101,
      "bay": 6102,
      "cers": 6103,
      "efficient": 6104,
      "gas": 6105,
      "mology": 6106,
      "rus": 6107,
      "à¤": 6108,
      "âĪ": 6109,
      "heads": 6110,
      "Ġcou": 6111,
      "Ġcode": 6112,
      "Ġwrote": 6113,
      "aran": 6114,
      "arion": 6115,
      "icide": 6116,
      "ouac": 6117,
      "entric": 6118,
      "olic": 6119,
      "ima": 6120,
      "ivouac": 6121,
      "ĠCCZ": 6122,
      "ĠSec": 6123,
      "ament": 6124,
      "Ġstoves": 6125,
      "uty": 6126,
      "Ġdeer": 6127,
      "ifies": 6128,
      "uman": 6129,
      "ĠBi": 6130,
      "ĠBal": 6131,
      "istant": 6132,
      "werk": 6133,
      "Ġexam": 6134,
      "Ġkill": 6135,
      "Ġchain": 6136,
      "Ġchip": 6137,
      "ĠDSM": 6138,
      "Ġran": 6139,
      "arters": 6140,
      "ĠNon": 6141,
      "Ġcoated": 6142,
      "Ġcoins": 6143,
      "iphy": 6144,
      "ĠLower": 6145,
      "appe": 6146,
      "ĠOften": 6147,
      "Ġroad": 6148,
      "berg": 6149,
      "Ġteeth": 6150,
      "Ġcharged": 6151,
      "Ġpron": 6152,
      "Ġlock": 6153,
      "Ġlocally": 6154,
      "Ġdecay": 6155,
      "Ġoffer": 6156,
      "Ġsupplies": 6157,
      "Ġbooks": 6158,
      "Ġ2014": 6159,
      "ollowing": 6160,
      "idential": 6161,
      "Ġflav": 6162,
      "ĠLevel": 6163,
      "Ġbrinelling": 6164,
      "Ġdeplet": 6165,
      "Ġfunctions": 6166,
      "Ġkept": 6167,
      "Ġguard": 6168,
      "Ġstraw": 6169,
      "Ġ2024": 6170,
      "Ġstrongly": 6171,
      "ĠSpruce": 6172,
      "Ġtests": 6173,
      "Ġangles": 6174,
      "Ġconflic": 6175,
      "ĠÎ¼": 6176,
      "Ġtransportation": 6177,
      "Ġfeedstock": 6178,
      "Ġessentially": 6179,
      "Ġexploited": 6180,
      "Ġplayed": 6181,
      "Ġsecurity": 6182,
      "Ġdecreases": 6183,
      "Ġbulk": 6184,
      "Ġprices": 6185,
      "Ġpanels": 6186,
      "ĠBlue": 6187,
      "ĠTypically": 6188,
      "Ġcollapse": 6189,
      "Ġviable": 6190,
      "Ġfavor": 6191,
      "ĠEvasion": 6192,
      "Ġbehavi": 6193,
      "Ġmakers": 6194,
      "Ġstatus": 6195,
      "Ġpetro": 6196,
      "maker": 6197,
      "Ġgradually": 6198,
      "Ġconifers": 6199,
      "Ġindependent": 6200,
      "ranean": 6201,
      "Ġprocedures": 6202,
      "Ġcrucible": 6203,
      "ĠLtd": 6204,
      "Ġchimney": 6205,
      "ĠService": 6206,
      "Ġrectangular": 6207,
      "Ġinfrastructure": 6208,
      "ylvania": 6209,
      "27": 6210,
      "36": 6211,
      "38": 6212,
      "55": 6213,
      "600": 6214,
      "MC": 6215,
      "SC": 6216,
      "bl": 6217,
      "bec": 6218,
      "cle": 6219,
      "ference": 6220,
      "mill": 6221,
      "ois": 6222,
      "pow": 6223,
      "survival": 6224,
      "âĸĦ": 6225,
      "Ġtinder": 6226,
      "Ġtasks": 6227,
      "Ġaqu": 6228,
      "Ġcad": 6229,
      "Ġcores": 6230,
      "Ġfem": 6231,
      "Ġbacks": 6232,
      "isp": 6233,
      "road": 6234,
      "Ġdro": 6235,
      "Ġdil": 6236,
      "Ġdag": 6237,
      "Ġdied": 6238,
      "ctober": 6239,
      "Ġlot": 6240,
      "Ġrely": 6241,
      "Ġisland": 6242,
      "Ġcontem": 6243,
      "left": 6244,
      "Ġgather": 6245,
      "ĠArab": 6246,
      "ĠCong": 6247,
      "ĠCellulosic": 6248,
      "ĠSimilar": 6249,
      "otation": 6250,
      "otrop": 6251,
      "Ġdeal": 6252,
      "ĠMo": 6253,
      "unicip": 6254,
      "Ġmac": 6255,
      "ĠFurn": 6256,
      "ĠWir": 6257,
      "Ġ29": 6258,
      "Ġ250": 6259,
      "ĠDel": 6260,
      "Ġric": 6261,
      "Ġseven": 6262,
      "thermal": 6263,
      "ĠLang": 6264,
      "pecific": 6265,
      "Ġcommit": 6266,
      "Ġpartial": 6267,
      "Ġindex": 6268,
      "Ġdisposal": 6269,
      "Ġfounded": 6270,
      "Ġfoundation": 6271,
      "Ġevents": 6272,
      "Ġevalu": 6273,
      "Ġscar": 6274,
      "Ġgravity": 6275,
      "Ġunderst": 6276,
      "Ġamb": 6277,
      "ĠUnion": 6278,
      "Ġinterpret": 6279,
      "Ġgrown": 6280,
      "Ġorganizations": 6281,
      "Ġstanding": 6282,
      "Ġbrass": 6283,
      "Ġ700": 6284,
      "Ġadvoc": 6285,
      "Ġbasin": 6286,
      "melt": 6287,
      "ountered": 6288,
      "Ġengineer": 6289,
      "ĠCoal": 6290,
      "Ġwider": 6291,
      "Ġgeomet": 6292,
      "ĠClarion": 6293,
      "Ġpreventing": 6294,
      "Ġexistence": 6295,
      "Ġpowerful": 6296,
      "ĠWoodworking": 6297,
      "Ġdeliv": 6298,
      "Ġpromin": 6299,
      "Ġpromot": 6300,
      "ville": 6301,
      "Ġholding": 6302,
      "Ġobsidian": 6303,
      "Ġnuts": 6304,
      "Ġconsumed": 6305,
      "Ġfrequency": 6306,
      "Ġemergency": 6307,
      "Ġopposite": 6308,
      "Ġclaims": 6309,
      "Ġsituations": 6310,
      "Ġcarbides": 6311,
      "ĠSomali": 6312,
      "Ġmicroscope": 6313,
      "ĠTypes": 6314,
      "ĠParis": 6315,
      "Ġviol": 6316,
      "Ġassessment": 6317,
      "Ġadjacent": 6318,
      "Ġtroops": 6319,
      "luded": 6320,
      "Ġsequence": 6321,
      "Ġdiseases": 6322,
      "Ġdominant": 6323,
      "ĠPeru": 6324,
      "Ġvapor": 6325,
      "ĠMagnetite": 6326,
      "Ġarchitecture": 6327,
      "ĠMelbour": 6328,
      "Ġforeign": 6329,
      "ĠAluminium": 6330,
      "Ġtransparent": 6331,
      "Ġpurchased": 6332,
      "Ġdislocation": 6333,
      "Ġsacr": 6334,
      "Ġmythology": 6335,
      "Ġstrategies": 6336,
      "Ġbeech": 6337,
      "Ġerectus": 6338,
      "ĠEmpire": 6339,
      "Ġbullion": 6340,
      "ĠPhilippines": 6341,
      "Ġvulnerable": 6342,
      "ĠGreece": 6343,
      "Ġenemy": 6344,
      "ĠMelbourne": 6345,
      ")?": 6346,
      "26": 6347,
      "68": 6348,
      "actions": 6349,
      "blow": 6350,
      "cest": 6351,
      "rie": 6352,
      "rix": 6353,
      "under": 6354,
      "western": 6355,
      "Ġaward": 6356,
      "rence": 6357,
      "Ġcres": 6358,
      "Ġcrop": 6359,
      "Ġsail": 6360,
      "Ġmoving": 6361,
      "Ġwinter": 6362,
      "itives": 6363,
      "Ġpear": 6364,
      "Ġinhab": 6365,
      "roph": 6366,
      "ania": 6367,
      "Ġdedic": 6368,
      "ĠTre": 6369,
      "oma": 6370,
      "Ġisol": 6371,
      "uras": 6372,
      "Ġease": 6373,
      "ims": 6374,
      "Ġnight": 6375,
      "Ġster": 6376,
      "Ġstar": 6377,
      "lace": 6378,
      "ĠBunker": 6379,
      "ĠPell": 6380,
      "ĠPER": 6381,
      "Ġexchange": 6382,
      "Ġvan": 6383,
      "ĠDenticulate": 6384,
      "ĠLike": 6385,
      "cooled": 6386,
      "ksworth": 6387,
      "Ġunivers": 6388,
      "Ġwoodland": 6389,
      "Ġdischar": 6390,
      "Ġflame": 6391,
      "Ġdiffer": 6392,
      "erness": 6393,
      "Ġthereby": 6394,
      "Ġvarieties": 6395,
      "Ġmillimet": 6396,
      "Ġdrinking": 6397,
      "Ġgrey": 6398,
      "Ġelectrolysis": 6399,
      "lingham": 6400,
      "Ġproductivity": 6401,
      "including": 6402,
      "Ġdefect": 6403,
      "Ġsheets": 6404,
      "Ġintermediate": 6405,
      "Ġequation": 6406,
      "Ġlandscape": 6407,
      "Ġoriginated": 6408,
      "Ġdepic": 6409,
      "Ġpatented": 6410,
      "Ġdrag": 6411,
      "Ġbrothers": 6412,
      "Ġacids": 6413,
      "Ġcatch": 6414,
      "Ġremoves": 6415,
      "Ġmassive": 6416,
      "Ġidentical": 6417,
      "Ġexplos": 6418,
      "Ġantiquity": 6419,
      "Ġencountered": 6420,
      "Ġbloomeries": 6421,
      "Ġannually": 6422,
      "Ġabrasion": 6423,
      "ĠWithin": 6424,
      "Ġprotective": 6425,
      "Ġserves": 6426,
      "Ġsurviving": 6427,
      "opped": 6428,
      "Ġselect": 6429,
      "Ġkeeping": 6430,
      "Ġfunctional": 6431,
      "Ġmounted": 6432,
      "Ġframework": 6433,
      "Ġtitle": 6434,
      "Ġfractures": 6435,
      "Ġelectroc": 6436,
      "Ġresidue": 6437,
      "rometallurgical": 6438,
      "haust": 6439,
      "ĠGraves": 6440,
      "Ġatmospheric": 6441,
      "Ġlegis": 6442,
      "ĠAmong": 6443,
      "ĠMediter": 6444,
      "Ġregarded": 6445,
      "auna": 6446,
      "Ġschools": 6447,
      "Ġintegrity": 6448,
      "Ġharvested": 6449,
      "Ġweeks": 6450,
      "Ġhybr": 6451,
      "Ġirregular": 6452,
      "cription": 6453,
      "Ġtuyere": 6454,
      "Ġeye": 6455,
      "Ġelevated": 6456,
      "Ġjewel": 6457,
      "ĠResources": 6458,
      "Ġexclusively": 6459,
      "ogeneous": 6460,
      "ĠSafety": 6461,
      "ĠVirgin": 6462,
      "Ġbamboo": 6463,
      "âĪĴ": 6464,
      "ĠMediterranean": 6465,
      "%)": 6466,
      "'t": 6467,
      "21": 6468,
      "32": 6469,
      "45": 6470,
      "69": 6471,
      "FP": 6472,
      "bed": 6473,
      "eed": 6474,
      "kin": 6475,
      "ope": 6476,
      "self": 6477,
      "Äģ": 6478,
      "Ġtask": 6479,
      "het": 6480,
      "hered": 6481,
      "onor": 6482,
      "Ġovens": 6483,
      "Ġcott": 6484,
      "Ġslo": 6485,
      "ench": 6486,
      "Ġwra": 6487,
      "itt": 6488,
      "Ġpist": 6489,
      "Ġpione": 6490,
      "Ġdi": 6491,
      "eters": 6492,
      "urch": 6493,
      "Ġegg": 6494,
      "ĠId": 6495,
      "raul": 6496,
      "Ġforward": 6497,
      "Ġgear": 6498,
      "Ġnations": 6499,
      "ĠCle": 6500,
      "ester": 6501,
      "ĠSan": 6502,
      "ods": 6503,
      "nsylvania": 6504,
      "ĠBer": 6505,
      "Ġsuicide": 6506,
      "erences": 6507,
      "ĠHot": 6508,
      "Ġexhaust": 6509,
      "Ġvast": 6510,
      "Ġshorter": 6511,
      "Ġminor": 6512,
      "Ġseal": 6513,
      "Ġseaf": 6514,
      "ĠNi": 6515,
      "izer": 6516,
      "Ġcontribute": 6517,
      "ĠOctober": 6518,
      "Ġnotable": 6519,
      "Ġacadem": 6520,
      "Ġknot": 6521,
      "ĠItaly": 6522,
      "ressive": 6523,
      "Ġtreating": 6524,
      "Ġschem": 6525,
      "Ġjur": 6526,
      "Ġjob": 6527,
      "Ġ180": 6528,
      "cked": 6529,
      "Ġreplic": 6530,
      "Ġrepair": 6531,
      "Ġblocks": 6532,
      "Ġdisturb": 6533,
      "Ġinvention": 6534,
      "Ġgrew": 6535,
      "Ġoffered": 6536,
      "rame": 6537,
      "Ġcontainers": 6538,
      "Ġboats": 6539,
      "Ġartis": 6540,
      "ĠIndigenous": 6541,
      "Ġneedle": 6542,
      "Ġneedles": 6543,
      "Ġzones": 6544,
      "ĠTherefore": 6545,
      "Ġ95": 6546,
      "Ġcert": 6547,
      "Ġtermin": 6548,
      "Ġfertil": 6549,
      "Ġpressures": 6550,
      "Ġinfant": 6551,
      "Ġapproaches": 6552,
      "Ġpossibility": 6553,
      "Ġgolden": 6554,
      "ylene": 6555,
      "ĠSwiss": 6556,
      "Ġsaws": 6557,
      "Ġfungal": 6558,
      "Ġsupports": 6559,
      "ools": 6560,
      "typ": 6561,
      "ĠMetallurgy": 6562,
      "auge": 6563,
      "Ġ1982": 6564,
      "Ġpyrite": 6565,
      "Ġserved": 6566,
      "Ġsuggesting": 6567,
      "Ġindicating": 6568,
      "Ġgovernments": 6569,
      "Ġexcellent": 6570,
      "Ġmixing": 6571,
      "Ġburns": 6572,
      "Ġburial": 6573,
      "Ġburnt": 6574,
      "ĠQuercus": 6575,
      "Ġcommercially": 6576,
      "ĠEllingham": 6577,
      "Ġtransported": 6578,
      "Ġchest": 6579,
      "Ġcarpenters": 6580,
      "Ġabrasives": 6581,
      "Ġjoints": 6582,
      "Ġrepresented": 6583,
      "Ġpolymetallic": 6584,
      "Ġkindling": 6585,
      "Ġminimize": 6586,
      "Ġplanes": 6587,
      "Ġplanning": 6588,
      "Ġprofit": 6589,
      "Ġcovering": 6590,
      "Ġpitch": 6591,
      "certain": 6592,
      "Ġbattle": 6593,
      "Ġglaze": 6594,
      "Ġensuring": 6595,
      "Ġadopt": 6596,
      "ĠUNCLOS": 6597,
      "Ġrounded": 6598,
      "Ġrainforest": 6599,
      "ĠReporting": 6600,
      "ĠSwedish": 6601,
      "Ġdrawing": 6602,
      "III": 6603,
      "Ġsuccessfully": 6604,
      "ĠDistrict": 6605,
      "Ġarranged": 6606,
      "Ġtonne": 6607,
      "ĠBelg": 6608,
      "Ġdistinguish": 6609,
      "Ġdistinguished": 6610,
      "ĠSuper": 6611,
      "Ġelectronic": 6612,
      "Ġbearings": 6613,
      "Ġlignin": 6614,
      "Ġsubsid": 6615,
      "Ġphotosynt": 6616,
      "ĠHistorically": 6617,
      "Ġvaried": 6618,
      "ĠKorea": 6619,
      "ĠPennsylvania": 6620,
      "Ġagreement": 6621,
      "Ġscabbard": 6622,
      "Ġscholars": 6623,
      "ĠVarious": 6624,
      "ministration": 6625,
      "ĠHudbay": 6626,
      "ĠCollege": 6627,
      "Ġsomething": 6628,
      "ĠWirksworth": 6629,
      "ĠPERC": 6630,
      "Ġslope": 6631,
      "79": 6632,
      "800": 6633,
      "MP": 6634,
      "NA": 6635,
      "bust": 6636,
      "mium": 6637,
      "nis": 6638,
      "nel": 6639,
      "rian": 6640,
      "rings": 6641,
      "sized": 6642,
      "whe": 6643,
      "wyn": 6644,
      "zle": 6645,
      "Ġ]": 6646,
      "ino": 6647,
      "iny": 6648,
      "rec": 6649,
      "Ġcu": 6650,
      "Ġcrown": 6651,
      "Ġmus": 6652,
      "Ġmature": 6653,
      "Ġmamm": 6654,
      "Ġwon": 6655,
      "itud": 6656,
      "Ġbis": 6657,
      "Ġbought": 6658,
      "Ġpounds": 6659,
      "Ġpaste": 6660,
      "rog": 6661,
      "anze": 6662,
      "icial": 6663,
      "asman": 6664,
      "eler": 6665,
      "ilibr": 6666,
      "ĠTasman": 6667,
      "lements": 6668,
      "ĠAgency": 6669,
      "ĠCave": 6670,
      "igma": 6671,
      "ĠSite": 6672,
      "Ġstated": 6673,
      "Ġstack": 6674,
      "Ġstake": 6675,
      "adium": 6676,
      "Ġalter": 6677,
      "outheast": 6678,
      "Ġdeform": 6679,
      "iful": 6680,
      "ĠMou": 6681,
      "ĠBet": 6682,
      "ĠBath": 6683,
      "ĠPul": 6684,
      "ĠHall": 6685,
      "ĠFac": 6686,
      "ĠFood": 6687,
      "ĠFound": 6688,
      "ĠFollowing": 6689,
      "resp": 6690,
      "Ġsho": 6691,
      "Ġshut": 6692,
      "ĠDo": 6693,
      "ĠDy": 6694,
      "Ġincomp": 6695,
      "ĠRel": 6696,
      "ogram": 6697,
      "impanze": 6698,
      "Ġadzes": 6699,
      "Ġacorns": 6700,
      "Ġune": 6701,
      "Ġspaces": 6702,
      "Ġsurvey": 6703,
      "ĠKelly": 6704,
      "Ġspecified": 6705,
      "ĠCham": 6706,
      "akers": 6707,
      "Ġcentre": 6708,
      "Ġcentimet": 6709,
      "Ġtwent": 6710,
      "Ġscrat": 6711,
      "Ġoverc": 6712,
      "lications": 6713,
      "Ġassist": 6714,
      "Ġoffice": 6715,
      "Ġstring": 6716,
      "Ġstrike": 6717,
      "Ġstriking": 6718,
      "Ġeffectiveness": 6719,
      "arsh": 6720,
      "Ġdirected": 6721,
      "Ġpurification": 6722,
      "Ġ99": 6723,
      "Ġadditives": 6724,
      "Ġattributed": 6725,
      "Ġlandf": 6726,
      "Ġslop": 6727,
      "ĠHealth": 6728,
      "ĠCorporation": 6729,
      "}}\\": 6730,
      "Ġowner": 6731,
      "ception": 6732,
      "Ġpossess": 6733,
      "oxic": 6734,
      "Ġalongside": 6735,
      "ĠProte": 6736,
      "ĠSpanish": 6737,
      "Ġimper": 6738,
      "Ġbiological": 6739,
      "axe": 6740,
      "Ġerosion": 6741,
      "Ġcheap": 6742,
      "Ġtends": 6743,
      "Ġmaintaining": 6744,
      "Ġbroader": 6745,
      "guard": 6746,
      "Ġclosure": 6747,
      "Ġdebris": 6748,
      "Ġdebitage": 6749,
      "Ġdecorated": 6750,
      "Ġagglom": 6751,
      "ĠSOS": 6752,
      "queous": 6753,
      "ĠUsing": 6754,
      "Ġquarry": 6755,
      "Ġdoub": 6756,
      "ĠPartnership": 6757,
      "encies": 6758,
      "ĠAmorphous": 6759,
      "Ġrolling": 6760,
      "ĠIndustries": 6761,
      "Ġcrafts": 6762,
      "Ġweek": 6763,
      "Ġreveal": 6764,
      "Ġchamber": 6765,
      "Ġrods": 6766,
      "Ġenabling": 6767,
      "Ġaspects": 6768,
      "iderite": 6769,
      "ĠAuthor": 6770,
      "Ġreflected": 6771,
      "ĠScotland": 6772,
      "treatment": 6773,
      "treated": 6774,
      "Ġbehaviour": 6775,
      "ĠLangdale": 6776,
      "ĠVirginia": 6777,
      "400": 6778,
      "Mg": 6779,
      "cl": 6780,
      "gers": 6781,
      "har": 6782,
      "hard": 6783,
      "mm": 6784,
      "nes": 6785,
      "rd": 6786,
      "rial": 6787,
      "sy": 6788,
      "uit": 6789,
      "va": 6790,
      "wall": 6791,
      "ying": 6792,
      "Ġtele": 6793,
      "Ġcyan": 6794,
      "Ġfed": 6795,
      "Ġfell": 6796,
      "Ġwax": 6797,
      "Ġbases": 6798,
      "Ġbarm": 6799,
      "Ġbatt": 6800,
      "Ġbeds": 6801,
      "orized": 6802,
      "Ġpores": 6803,
      "eless": 6804,
      "Ġhors": 6805,
      "Ġhang": 6806,
      "Ġrear": 6807,
      "ĠTam": 6808,
      "ommod": 6809,
      "Ġeat": 6810,
      "Ġconical": 6811,
      "Ġgird": 6812,
      "imb": 6813,
      "ĠCap": 6814,
      "ĠCob": 6815,
      "ĠSerb": 6816,
      "ulus": 6817,
      "Ġstro": 6818,
      "Ġstay": 6819,
      "Ġdehyd": 6820,
      "ĠEty": 6821,
      "resistant": 6822,
      "Ġmeteor": 6823,
      "ĠDem": 6824,
      "Ġminute": 6825,
      "Ġproducers": 6826,
      "ĠNet": 6827,
      "Ġincent": 6828,
      "ineering": 6829,
      "ogenic": 6830,
      "ĠGP": 6831,
      "rug": 6832,
      "ĠLow": 6833,
      "ĠLate": 6834,
      "ĠLouis": 6835,
      "ĠOf": 6836,
      "Ġcarved": 6837,
      "ĠThrough": 6838,
      "iance": 6839,
      "ressure": 6840,
      "cont": 6841,
      "iquet": 6842,
      "Ġscrew": 6843,
      "Ġoperates": 6844,
      "Ġobl": 6845,
      "Ġcorresp": 6846,
      "ĠAlarm": 6847,
      "Ġvariations": 6848,
      "oku": 6849,
      "Ġcuts": 6850,
      "Ġfinery": 6851,
      "Ġfinishing": 6852,
      "Ġaccommod": 6853,
      "Ġsupplied": 6854,
      "Ġ67": 6855,
      "Ġ2016": 6856,
      "Ġgoes": 6857,
      "Ġstream": 6858,
      "Ġbelt": 6859,
      "Ġpracticed": 6860,
      "ĠHeim": 6861,
      "Ġfert": 6862,
      "Ġtrip": 6863,
      "Ġcurve": 6864,
      "Ġimproving": 6865,
      "Ġlook": 6866,
      "Ġ1994": 6867,
      "Ġdrainage": 6868,
      "Ġengineers": 6869,
      "Ġclasses": 6870,
      "Ġcharacterized": 6871,
      "annel": 6872,
      "ĠIslands": 6873,
      "Ġrestric": 6874,
      "Ġpredomin": 6875,
      "Ġexisted": 6876,
      "aneously": 6877,
      "Ġmolds": 6878,
      "Ġconfir": 6879,
      "ĠÎ±": 6880,
      "Ġfluor": 6881,
      "aho": 6882,
      "Ġrotation": 6883,
      "Ġsediments": 6884,
      "Ġready": 6885,
      "Ġsurvived": 6886,
      "Ġfailed": 6887,
      "Ġcaptured": 6888,
      "Ġyields": 6889,
      "Ġreactor": 6890,
      "agnetic": 6891,
      "Ġinfluenced": 6892,
      "Ġdivision": 6893,
      "Ġsuperior": 6894,
      "Ġresidual": 6895,
      "Ġballs": 6896,
      "product": 6897,
      "Ġmicroscopic": 6898,
      "Ġpellet": 6899,
      "Ġprepare": 6900,
      "Ġfigur": 6901,
      "Ġfigure": 6902,
      "Ġgods": 6903,
      "Ġcollaps": 6904,
      "Ġdegrees": 6905,
      "Ġrecommend": 6906,
      "Ġfossils": 6907,
      "Ġsnow": 6908,
      "Ġfruits": 6909,
      "Ġvehicle": 6910,
      "makers": 6911,
      "ĠBasin": 6912,
      "ĠGeneral": 6913,
      "ĠGenerally": 6914,
      "Ġcommunication": 6915,
      "Ġaggregate": 6916,
      "Ġductile": 6917,
      "ĠCeramic": 6918,
      "ĠFurthermore": 6919,
      "ĠFerrous": 6920,
      "Ġlivestock": 6921,
      "Ġlandsl": 6922,
      "Ġretreats": 6923,
      "Ġsharpened": 6924,
      "Ġhypot": 6925,
      "Ġchisel": 6926,
      "Ġhazardous": 6927,
      "Ġprospect": 6928,
      "Ġelsewhere": 6929,
      "Ġventilation": 6930,
      "Ġfemale": 6931,
      "ilibrium": 6932,
      "ĠEtymology": 6933,
      ".).": 6934,
      "53": 6935,
      "Ca": 6936,
      "Puits": 6937,
      "SB": 6938,
      "SP": 6939,
      "bat": 6940,
      "but": 6941,
      "bach": 6942,
      "cs": 6943,
      "eur": 6944,
      "lich": 6945,
      "ming": 6946,
      "oir": 6947,
      "ua": 6948,
      "wa": 6949,
      "ĠâĢĶ": 6950,
      "Ġtunn": 6951,
      "heat": 6952,
      "Ġsan": 6953,
      "esides": 6954,
      "edded": 6955,
      "Ġfrying": 6956,
      "Ġwing": 6957,
      "Ġbanding": 6958,
      "Ġpick": 6959,
      "Ġpines": 6960,
      "Ġpict": 6961,
      "Ġpump": 6962,
      "istered": 6963,
      "Ġinhibit": 6964,
      "rot": 6965,
      "room": 6966,
      "rook": 6967,
      "Ġdress": 6968,
      "elih": 6969,
      "Ġlaun": 6970,
      "Ġlashing": 6971,
      "Ġhide": 6972,
      "uses": 6973,
      "Ġrenew": 6974,
      "ĠTrans": 6975,
      "urated": 6976,
      "stances": 6977,
      "ĠIrons": 6978,
      "ceeds": 6979,
      "Ġgir": 6980,
      "Ġglu": 6981,
      "Ġgilding": 6982,
      "ĠAx": 6983,
      "ivision": 6984,
      "ĠCross": 6985,
      "ĠSometimes": 6986,
      "Ġstored": 6987,
      "Ġornam": 6988,
      "ĠMont": 6989,
      "ĠPat": 6990,
      "ĠHol": 6991,
      "ĠHung": 6992,
      "ĠEm": 6993,
      "Ġexists": 6994,
      "ĠDen": 6995,
      "Ġrivers": 6996,
      "Ġridge": 6997,
      "Ġseem": 6998,
      "Ġhair": 6999,
      "ĠNature": 7000,
      "Ġhelic": 7001,
      "ayo": 7002,
      "Ġcompact": 7003,
      "ĠGal": 7004,
      "ĠGla": 7005,
      "ĠLand": 7006,
      "Ġenable": 7007,
      "Ġ1910": 7008,
      "Ġcars": 7009,
      "Ġworth": 7010,
      "Ġadhes": 7011,
      "Ġunw": 7012,
      "Ġuncertain": 7013,
      "ologically": 7014,
      "Ġwoody": 7015,
      "Ġspent": 7016,
      "ints": 7017,
      "ĠKar": 7018,
      "rosive": 7019,
      "Ġcarbons": 7020,
      "Ġflet": 7021,
      "Ġflotation": 7022,
      "Ġgrazing": 7023,
      "Ġjour": 7024,
      "Ġacts": 7025,
      "Ġdecid": 7026,
      "Ġdeclined": 7027,
      "Ġconcluded": 7028,
      "Ġrequiring": 7029,
      "Ġdrum": 7030,
      "ossible": 7031,
      "Ġconstra": 7032,
      "ĠDepending": 7033,
      "Ġedible": 7034,
      "Ġcontinental": 7035,
      "Ġsulfate": 7036,
      "Ġhydraul": 7037,
      "Ġferric": 7038,
      "Ġcontrolling": 7039,
      "ĠAustria": 7040,
      "Ġbridges": 7041,
      "Ġmargin": 7042,
      "ercury": 7043,
      "ferrous": 7044,
      "Ġspecialist": 7045,
      "Ġmatch": 7046,
      "Ġvolcan": 7047,
      "Ġgeological": 7048,
      "Ġsimpl": 7049,
      "Ġriser": 7050,
      "Ġreplacing": 7051,
      "Ġanaly": 7052,
      "ĠSeabed": 7053,
      "Ġframes": 7054,
      "Ġdamaged": 7055,
      "Ġhelped": 7056,
      "Ġlengths": 7057,
      "Ġgoods": 7058,
      "Ġestimates": 7059,
      "Ġbranding": 7060,
      "ĠMountains": 7061,
      "Ġfinds": 7062,
      "Ġfindings": 7063,
      "Ġwilderness": 7064,
      "Ġpositions": 7065,
      "Ġsustainability": 7066,
      "Ġissued": 7067,
      "Ġcleaning": 7068,
      "Ġhimself": 7069,
      "ĠOrgan": 7070,
      "ĠOrigin": 7071,
      "Ġopport": 7072,
      "Ġopposed": 7073,
      "ĠPrec": 7074,
      "Ġfarming": 7075,
      "products": 7076,
      "Ġdurability": 7077,
      "Ġlaboratory": 7078,
      "ĠÃī": 7079,
      "Ġcarefully": 7080,
      "Ġfigures": 7081,
      "Ġauthorities": 7082,
      "Ġexcavation": 7083,
      "Ġsufficiently": 7084,
      "Ġchemically": 7085,
      "Ġunsu": 7086,
      "Ġoptim": 7087,
      "Ġharvesting": 7088,
      "Ġcoatings": 7089,
      "Ġepiphy": 7090,
      "Ġresemble": 7091,
      "Ġsplitting": 7092,
      "Ġrecreation": 7093,
      "Ġexhibit": 7094,
      "Ġadaptation": 7095,
      "Ġsettlement": 7096,
      "Ġgalvan": 7097,
      "ĠKiln": 7098,
      "Ġvillage": 7099,
      "olidated": 7100,
      "Ġelectrolytic": 7101,
      "Ġinstitutions": 7102,
      "Ġguidelines": 7103,
      "Ġfamiliar": 7104,
      "ĠHematite": 7105,
      "Ġdestroyed": 7106,
      "Ġcylindrical": 7107,
      "ĠUSAF": 7108,
      "sheet": 7109,
      "ĠDoug": 7110,
      "ĠStudies": 7111,
      "Ġhectares": 7112,
      "Ġelaborate": 7113,
      "ĠMaterials": 7114,
      "Ġargued": 7115,
      "Ġdedicated": 7116,
      "Ġlegislation": 7117,
      "Ġjewelry": 7118,
      "ĠIdaho": 7119,
      "ĠAuthority": 7120,
      "elihood": 7121,
      "Ġhelicop": 7122,
      "\"),": 7123,
      "73": 7124,
      "88": 7125,
      "Cu": 7126,
      "IN": 7127,
      "OH": 7128,
      "UN": 7129,
      "aj": 7130,
      "burg": 7131,
      "bearing": 7132,
      "free": 7133,
      "gar": 7134,
      "lant": 7135,
      "rates": 7136,
      "tra": 7137,
      "vis": 7138,
      "wan": 7139,
      "Ġtor": 7140,
      "inity": 7141,
      "reland": 7142,
      "Ġtherapy": 7143,
      "erland": 7144,
      "Ġcos": 7145,
      "Ġcred": 7146,
      "Ġsimilarly": 7147,
      "ndom": 7148,
      "Ġfa": 7149,
      "Ġflag": 7150,
      "Ġfriction": 7151,
      "Ġbent": 7152,
      "Ġbud": 7153,
      "Ġpun": 7154,
      "Ġparent": 7155,
      "Ġpests": 7156,
      "Ġpouring": 7157,
      "isd": 7158,
      "Ġinjected": 7159,
      "rovers": 7160,
      "Ġdens": 7161,
      "ashes": 7162,
      "Ġhollow": 7163,
      "ĠTem": 7164,
      "ĠTents": 7165,
      "stream": 7166,
      "ĠIreland": 7167,
      "leable": 7168,
      "Ġforges": 7169,
      "imately": 7170,
      "Ġproved": 7171,
      "ĠCher": 7172,
      "ĠCivil": 7173,
      "igence": 7174,
      "ĠSoc": 7175,
      "ĠSign": 7176,
      "Ġstabil": 7177,
      "ĠInit": 7178,
      "utral": 7179,
      "Ġ1000": 7180,
      "adow": 7181,
      "osing": 7182,
      "Ġanne": 7183,
      "ĠBase": 7184,
      "ĠBack": 7185,
      "Ġwhom": 7186,
      "ĠPeter": 7187,
      "ĠEuras": 7188,
      "ĠWhere": 7189,
      "ĠDu": 7190,
      "Ġseam": 7191,
      "ĠRann": 7192,
      "Ġcoff": 7193,
      "Ġcompens": 7194,
      "Ġcompressed": 7195,
      "ĠLife": 7196,
      "ĠLabor": 7197,
      "ĠOl": 7198,
      "aceous": 7199,
      "Ġmanag": 7200,
      "Ġadequ": 7201,
      "Ġroot": 7202,
      "Ġrobust": 7203,
      "aved": 7204,
      "avers": 7205,
      "Ġperm": 7206,
      "Ġunf": 7207,
      "Ġspru": 7208,
      "Ġindirect": 7209,
      "Ġdisrupt": 7210,
      "ĠKÃ¶": 7211,
      "Ġrandom": 7212,
      "merged": 7213,
      "Ġflour": 7214,
      "Ġ37": 7215,
      "Ġupright": 7216,
      "ructive": 7217,
      "Ġjade": 7218,
      "Ġ1800": 7219,
      "Ġexpressed": 7220,
      "ccentric": 7221,
      "ĠAltern": 7222,
      "Ġpolice": 7223,
      "Ġvariants": 7224,
      "ĠAsian": 7225,
      "Ġtransferred": 7226,
      "Ġdriving": 7227,
      "Ġmodified": 7228,
      "Ġfiner": 7229,
      "Ġequal": 7230,
      "Ġequipped": 7231,
      "Ġethn": 7232,
      "Ġ2001": 7233,
      "Ġ2006": 7234,
      "ĠRead": 7235,
      "Ġpressing": 7236,
      "Ġbriquet": 7237,
      "Ġmarking": 7238,
      "ylogen": 7239,
      "Ġsawn": 7240,
      "Ġstrengthen": 7241,
      "mann": 7242,
      "Ġlightweight": 7243,
      "Ġsanding": 7244,
      "190": 7245,
      "idden": 7246,
      "ĠCoeur": 7247,
      "Ġmatrix": 7248,
      "Ġstarts": 7249,
      "Ġ1975": 7250,
      "Ġ1978": 7251,
      "exp": 7252,
      "Ġpassing": 7253,
      "ĠFeO": 7254,
      "Ġsubstit": 7255,
      "Ġsubstance": 7256,
      "Ġsubstitute": 7257,
      "Ġaffects": 7258,
      "Ġconverters": 7259,
      "Ġantler": 7260,
      "solid": 7261,
      "Ġwindows": 7262,
      "Ġstandardized": 7263,
      "ĠÎĶ": 7264,
      "Ġportable": 7265,
      "Ġofficial": 7266,
      "Ġblowing": 7267,
      "ĠRedu": 7268,
      "Ġaccounts": 7269,
      "Ġjoinery": 7270,
      "Ġdispla": 7271,
      "Ġversions": 7272,
      "holder": 7273,
      "ĠBridge": 7274,
      "Ġhearths": 7275,
      "ĠPoly": 7276,
      "Ġdemonstration": 7277,
      "Ġcategory": 7278,
      "aldo": 7279,
      "Ġexception": 7280,
      "Ġutilized": 7281,
      "ĠSilver": 7282,
      "Ġexcavated": 7283,
      "ĠMoreover": 7284,
      "Ġcracks": 7285,
      "Ġfrie": 7286,
      "Ġintegrated": 7287,
      "ĠCatalan": 7288,
      "Ġsocieties": 7289,
      "Ġextension": 7290,
      "Ġhazards": 7291,
      "Ġcoastal": 7292,
      "ascular": 7293,
      "Ġmillennia": 7294,
      "Ġhundreds": 7295,
      "sterian": 7296,
      "Ġrigid": 7297,
      "Ġenabled": 7298,
      "Ġvegetation": 7299,
      "Ġurine": 7300,
      "Ġarrangements": 7301,
      "ĠCourt": 7302,
      "Ġmigration": 7303,
      "Ġconstituents": 7304,
      "ĠHammer": 7305,
      "Ġprofessional": 7306,
      "ĠDavid": 7307,
      "ĠTownship": 7308,
      "Ġartefacts": 7309,
      "Ġundesirable": 7310,
      "Ġsophisticated": 7311,
      "Ġgangue": 7312,
      "Ġjurisd": 7313,
      "ĠRanni": 7314,
      "29": 7315,
      "OR": 7316,
      "cor": 7317,
      "dust": 7318,
      "eu": 7319,
      "fort": 7320,
      "flow": 7321,
      "fection": 7322,
      "gets": 7323,
      "ikes": 7324,
      "often": 7325,
      "ratic": 7326,
      "Ġtab": 7327,
      "Ġtap": 7328,
      "Ġactions": 7329,
      "Ġaqueous": 7330,
      "onents": 7331,
      "Ġoption": 7332,
      "Ġfif": 7333,
      "Ġfolk": 7334,
      "Ġfalse": 7335,
      "Ġmom": 7336,
      "Ġmale": 7337,
      "Ġmission": 7338,
      "Ġbands": 7339,
      "Ġbivouac": 7340,
      "Ġpull": 7341,
      "Ġpaid": 7342,
      "arat": 7343,
      "arbon": 7344,
      "icate": 7345,
      "asso": 7346,
      "elect": 7347,
      "ilk": 7348,
      "Ġlived": 7349,
      "Ġliber": 7350,
      "usual": 7351,
      "ĠTr": 7352,
      "ĠTar": 7353,
      "olith": 7354,
      "omans": 7355,
      "leum": 7356,
      "Ġbevel": 7357,
      "Ġbending": 7358,
      "chang": 7359,
      "Ġgets": 7360,
      "ĠAv": 7361,
      "ĠChe": 7362,
      "ĠCold": 7363,
      "igins": 7364,
      "ĠSa": 7365,
      "ĠSum": 7366,
      "uting": 7367,
      "Ġwithstand": 7368,
      "pered": 7369,
      "ĠMg": 7370,
      "ĠMid": 7371,
      "ĠMilitary": 7372,
      "uming": 7373,
      "ĠBund": 7374,
      "ĠPet": 7375,
      "acial": 7376,
      "ĠNa": 7377,
      "ĠRail": 7378,
      "Ġcoord": 7379,
      "ĠGlobal": 7380,
      "Ġenrich": 7381,
      "itions": 7382,
      "Ġmanage": 7383,
      "oney": 7384,
      "Ġplug": 7385,
      "Ġinclusion": 7386,
      "ension": 7387,
      "Ġbutter": 7388,
      "Ġperpend": 7389,
      "Ġunable": 7390,
      "Ġpref": 7391,
      "Ġtrap": 7392,
      "Ġtraw": 7393,
      "Ġcharges": 7394,
      "ĠChamp": 7395,
      "ĠChalcedony": 7396,
      "aked": 7397,
      "Ġdesert": 7398,
      "Ġflocculation": 7399,
      "cons": 7400,
      "Ġregularly": 7401,
      "Ġprison": 7402,
      "erman": 7403,
      "Ġcolors": 7404,
      "Ġcoloration": 7405,
      "Ġjet": 7406,
      "Ġjud": 7407,
      "Ġactors": 7408,
      "Ġassistance": 7409,
      "taining": 7410,
      "ocket": 7411,
      "Ġinterface": 7412,
      "Ġgoing": 7413,
      "Ġgoethite": 7414,
      "ottom": 7415,
      "ĠContin": 7416,
      "ĠConduct": 7417,
      "ĠConvention": 7418,
      "Ġretorts": 7419,
      "Ġinsulation": 7420,
      "Ġbright": 7421,
      "Ġsignificance": 7422,
      "Ġmaritime": 7423,
      "Ġpigs": 7424,
      "Ġtreatments": 7425,
      "Ġsandstone": 7426,
      "Ġalumina": 7427,
      "Ġclassification": 7428,
      "Ġgeopol": 7429,
      "aux": 7430,
      "Ġ1988": 7431,
      "rising": 7432,
      "Ġthicker": 7433,
      "Ġoxidizing": 7434,
      "ĠSection": 7435,
      "restrial": 7436,
      "Ġpredict": 7437,
      "Ġflooring": 7438,
      "Ġconverting": 7439,
      "Ġveins": 7440,
      "sequently": 7441,
      "Ġpopularity": 7442,
      "Ġhemic": 7443,
      "Ġconsiderably": 7444,
      "Ġselected": 7445,
      "ĠIII": 7446,
      "Ġrecords": 7447,
      "Ġ1906": 7448,
      "Ġdecreased": 7449,
      "Ġingots": 7450,
      "Ġhabitats": 7451,
      "ĠEgyptian": 7452,
      "ĠBlack": 7453,
      "Ġbricks": 7454,
      "Ġillustr": 7455,
      "Ġordered": 7456,
      "Ġabundance": 7457,
      "building": 7458,
      "Ġprecipitate": 7459,
      "Ġdominated": 7460,
      "Ġexported": 7461,
      "Ġdocumented": 7462,
      "Ġharmful": 7463,
      "ĠCenter": 7464,
      "Ġclothing": 7465,
      "Ġaccurate": 7466,
      "Ġrubber": 7467,
      "Ġarrangement": 7468,
      "Ġincorporated": 7469,
      "Ġcathode": 7470,
      "Ġcircumstances": 7471,
      "ĠOutdoor": 7472,
      "ĠCrev": 7473,
      "ĠLarge": 7474,
      "Ġingredients": 7475,
      "Ġphenomen": 7476,
      "ĠDevelopment": 7477,
      "Ġeducation": 7478,
      "Ġaesthetic": 7479,
      "itzerland": 7480,
      "steel": 7481,
      "ĠCurrent": 7482,
      "blown": 7483,
      "Ġbiscu": 7484,
      "ĠFacility": 7485,
      "ĠHeimlich": 7486,
      "Ġhydraulic": 7487,
      "ĠBundwerk": 7488,
      "700": 7489,
      "SW": 7490,
      "Shab": 7491,
      "bb": 7492,
      "bre": 7493,
      "bury": 7494,
      "cis": 7495,
      "cents": 7496,
      "dish": 7497,
      "eper": 7498,
      "eous": 7499,
      "lat": 7500,
      "lines": 7501,
      "mar": 7502,
      "oon": 7503,
      "oic": 7504,
      "pting": 7505,
      "rh": 7506,
      "vin": 7507,
      "yoku": 7508,
      "Â·": 7509,
      "Ġ}": 7510,
      "Ġtight": 7511,
      "Ġtaper": 7512,
      "ona": 7513,
      "rea": 7514,
      "Ġoils": 7515,
      "Ġoven": 7516,
      "Ġcit": 7517,
      "Ġsin": 7518,
      "Ġshed": 7519,
      "Ġsigns": 7520,
      "atter": 7521,
      "atically": 7522,
      "esus": 7523,
      "Ġfilling": 7524,
      "Ġmother": 7525,
      "Ġbad": 7526,
      "Ġbell": 7527,
      "Ġbank": 7528,
      "iser": 7529,
      "roc": 7530,
      "anz": 7531,
      "Ġdraft": 7532,
      "elet": 7533,
      "ett": 7534,
      "Ġconchoidal": 7535,
      "Ġbend": 7536,
      "Ġbeet": 7537,
      "irty": 7538,
      "ĠCow": 7539,
      "ĠCasting": 7540,
      "ĠSam": 7541,
      "amel": 7542,
      "ulence": 7543,
      "Ġstore": 7544,
      "Ġstiff": 7545,
      "Ġstopped": 7546,
      "Ġorange": 7547,
      "utive": 7548,
      "outs": 7549,
      "Ġdeoxid": 7550,
      "xtures": 7551,
      "ĠMat": 7552,
      "ĠMain": 7553,
      "ĠMac": 7554,
      "ĠMass": 7555,
      "ĠBad": 7556,
      "quarters": 7557,
      "ĠHistoric": 7558,
      "seud": 7559,
      "ĠFig": 7560,
      "ĠFederal": 7561,
      "Ġvene": 7562,
      "ĠDivision": 7563,
      "ĠNak": 7564,
      "ibration": 7565,
      "Ġcompre": 7566,
      "Ġcompression": 7567,
      "ĠLock": 7568,
      "Ġleop": 7569,
      "Ġresil": 7570,
      "Ġinters": 7571,
      "Ġintention": 7572,
      "Ġmanaging": 7573,
      "Ġadvent": 7574,
      "Ġroast": 7575,
      "aven": 7576,
      "avia": 7577,
      "Ġimplements": 7578,
      "Ġimpossible": 7579,
      "Ġpartly": 7580,
      "Ġknots": 7581,
      "Ġdisappe": 7582,
      "ĠChoking": 7583,
      "ĠJesus": 7584,
      "ractive": 7585,
      "Ġflight": 7586,
      "Ġtwist": 7587,
      "ubs": 7588,
      "arency": 7589,
      "Ġ32": 7590,
      "Ġ38": 7591,
      "Ġ350": 7592,
      "Ġgrades": 7593,
      "Ġcollo": 7594,
      "Ġoverla": 7595,
      "Ġexpand": 7596,
      "aws": 7597,
      "Ġblister": 7598,
      "Ġcorro": 7599,
      "Ġvariant": 7600,
      "ĠCommer": 7601,
      "ĠCommit": 7602,
      "Ġassets": 7603,
      "Ġemit": 7604,
      "utional": 7605,
      "Ġsupplement": 7606,
      "eney": 7607,
      "ĠAmericas": 7608,
      "Ġdirections": 7609,
      "Ġinterpre": 7610,
      "Ġinteractions": 7611,
      "ĠArizon": 7612,
      "ĠIndustry": 7613,
      "Ġgrows": 7614,
      "Ġnewly": 7615,
      "Ġequilibrium": 7616,
      "Ġ2004": 7617,
      "Ġstret": 7618,
      "Ġorganis": 7619,
      "Ġgrind": 7620,
      "Ġretort": 7621,
      "Ġinspe": 7622,
      "ĠAttic": 7623,
      "Ġsolids": 7624,
      "ylon": 7625,
      "ĠSwitzerland": 7626,
      "Ġ1991": 7627,
      "Ġarchaeometallurgy": 7628,
      "idding": 7629,
      "Ġengineered": 7630,
      "Ġcourses": 7631,
      "Ġguy": 7632,
      "ĠMethod": 7633,
      "Ġ1973": 7634,
      "Ġliquids": 7635,
      "iculture": 7636,
      "Ġrestoration": 7637,
      "Ġcrude": 7638,
      "Ġcataly": 7639,
      "Ġfloors": 7640,
      "Ġdiscip": 7641,
      "Ġhydrothermal": 7642,
      "ĠTraditional": 7643,
      "Ġrotating": 7644,
      "Ġdetermining": 7645,
      "ĠColor": 7646,
      "Ġtendency": 7647,
      "Ġbrand": 7648,
      "Ġworksh": 7649,
      "Ġholds": 7650,
      "ĠFlocculation": 7651,
      "Ġrepresents": 7652,
      "Ġpolymer": 7653,
      "ĠBravo": 7654,
      "ĠMinera": 7655,
      "Ġobserv": 7656,
      "Ġhistorically": 7657,
      "Ġherb": 7658,
      "Ġheritage": 7659,
      "Ġimprovements": 7660,
      "Ġemerged": 7661,
      "Ġ1958": 7662,
      "Ġarmour": 7663,
      "Ġplasticity": 7664,
      "Ġquarries": 7665,
      "ĠFinland": 7666,
      "Ġinjection": 7667,
      "Ġscientists": 7668,
      "Ġboiler": 7669,
      "ĠSilvopast": 7670,
      "Ġsmiths": 7671,
      "Ġboxes": 7672,
      "Ġtrophy": 7673,
      "Ġweathering": 7674,
      "Ġinsect": 7675,
      "Ġsapwood": 7676,
      "Ġcavities": 7677,
      "Ġheavier": 7678,
      "Ġcolonial": 7679,
      "Ġvapour": 7680,
      "Ġaerial": 7681,
      "ĠTurk": 7682,
      "ĠKilns": 7683,
      "Ġgrooves": 7684,
      "Ġdowel": 7685,
      "Ġborehole": 7686,
      "Ġhook": 7687,
      "ĠLocation": 7688,
      "Ġdecomposition": 7689,
      "Ġfilters": 7690,
      "Ġfiltration": 7691,
      "Ġlearned": 7692,
      "Ġpoisoning": 7693,
      "ĠHeritage": 7694,
      "Ġnavigation": 7695,
      "ĠControl": 7696,
      "Ġexperienced": 7697,
      "}}+{\\": 7698,
      "Ġfairly": 7699,
      "Ġpuddling": 7700,
      "Ġconnection": 7701,
      "Ġcorporate": 7702,
      "Ġpronounced": 7703,
      "Ġpetroleum": 7704,
      "Ġunderstood": 7705,
      "Ġhybrid": 7706,
      "Ġcotton": 7707,
      "Ġseafloor": 7708,
      "Ġinfantry": 7709,
      "typically": 7710,
      "ĠMousterian": 7711,
      "ĠPulp": 7712,
      "Ġglued": 7713,
      "Ġdeciduous": 7714,
      "Shabaab": 7715,
      "ĠCommittee": 7716,
      "ĠArizona": 7717,
      "63": 7718,
      "84": 7719,
      "Th": 7720,
      "ba": 7721,
      "fuel": 7722,
      "iate": 7723,
      "lishing": 7724,
      "nut": 7725,
      "oam": 7726,
      "pit": 7727,
      "point": 7728,
      "rase": 7729,
      "sil": 7730,
      "vious": 7731,
      "view": 7732,
      "ws": 7733,
      "well": 7734,
      "yb": 7735,
      "ÈĻ": 7736,
      "Ġtrib": 7737,
      "Ġtaste": 7738,
      "Ġtapping": 7739,
      "Ġtaught": 7740,
      "inrin": 7741,
      "heated": 7742,
      "heating": 7743,
      "rene": 7744,
      "rected": 7745,
      "Ġcodes": 7746,
      "Ġsets": 7747,
      "alysis": 7748,
      "Ġwave": 7749,
      "oral": 7750,
      "orÃ©": 7751,
      "Ġpad": 7752,
      "Ġdog": 7753,
      "Ġdross": 7754,
      "oust": 7755,
      "Ġlung": 7756,
      "Ġhour": 7757,
      "Ġhomes": 7758,
      "Ġhuge": 7759,
      "ĠTex": 7760,
      "oline": 7761,
      "urpose": 7762,
      "Ġconven": 7763,
      "ĠIran": 7764,
      "rad": 7765,
      "teen": 7766,
      "ĠCla": 7767,
      "ĠCity": 7768,
      "ĠSM": 7769,
      "ĠSal": 7770,
      "utants": 7771,
      "aded": 7772,
      "osis": 7773,
      "ĠMich": 7774,
      "ĠMult": 7775,
      "ĠMag": 7776,
      "Ġcoming": 7777,
      "quet": 7778,
      "Ġwhy": 7779,
      "ople": 7780,
      "ĠPan": 7781,
      "andin": 7782,
      "ĠEAF": 7783,
      "anta": 7784,
      "Ġvirt": 7785,
      "Ġka": 7786,
      "Ġkilling": 7787,
      "Ġkatti": 7788,
      "Ġchimpanze": 7789,
      "Ġshade": 7790,
      "ĠDur": 7791,
      "orted": 7792,
      "Ġsealed": 7793,
      "artments": 7794,
      "Ġhence": 7795,
      "ĠRomans": 7796,
      "Ġcoals": 7797,
      "Ġcooper": 7798,
      "ogy": 7799,
      "ĠOcc": 7800,
      "Ġ1900": 7801,
      "Ġneutral": 7802,
      "Ġplanned": 7803,
      "Ġstead": 7804,
      "Ġunusual": 7805,
      "Ġpreval": 7806,
      "Ġtrace": 7807,
      "Ġdisaster": 7808,
      "Ġrails": 7809,
      "Ġremn": 7810,
      "Ġagreed": 7811,
      "Ġ36": 7812,
      "Ġprinting": 7813,
      "Ġoperators": 7814,
      "Ġwealth": 7815,
      "gener": 7816,
      "Ġcorner": 7817,
      "ĠAlloy": 7818,
      "Ġdistrict": 7819,
      "issance": 7820,
      "ĠAny": 7821,
      "Ġphylogen": 7822,
      "Ġpeace": 7823,
      "Ġfineness": 7824,
      "Ġaccidents": 7825,
      "Ġkilogram": 7826,
      "lete": 7827,
      "Ġhunted": 7828,
      "Ġartificial": 7829,
      "Ġtrun": 7830,
      "Ġinferior": 7831,
      "Ġapproved": 7832,
      "Ġcampers": 7833,
      "Ġadvance": 7834,
      "Ġexperts": 7835,
      "Ġliters": 7836,
      "Ġhammering": 7837,
      "ĠWork": 7838,
      "Ġ1998": 7839,
      "ĠProv": 7840,
      "cribed": 7841,
      "ĠYear": 7842,
      "Ġmarkets": 7843,
      "ĠExpl": 7844,
      "Ġpasses": 7845,
      "Ġtested": 7846,
      "Ġshelf": 7847,
      "Ġsubstrate": 7848,
      "Ġmicrob": 7849,
      "Ġshowing": 7850,
      "Ġmeasuring": 7851,
      "Ġvisit": 7852,
      "Ġnecessarily": 7853,
      "ĠQuar": 7854,
      "Ġobtaining": 7855,
      "Ġsharing": 7856,
      "ĠTraditionally": 7857,
      "Ġradi": 7858,
      "Ġradiation": 7859,
      "Ġjustice": 7860,
      "Ġthermody": 7861,
      "Ġestimate": 7862,
      "standing": 7863,
      "while": 7864,
      "Ġderives": 7865,
      "imensional": 7866,
      "Ġconsideration": 7867,
      "Ġyielded": 7868,
      "ĠPlant": 7869,
      "Ġreacts": 7870,
      "Ġinterests": 7871,
      "Ġmountains": 7872,
      "Ġpastures": 7873,
      "ĠPeÃ±arroya": 7874,
      "Ġcontinuously": 7875,
      "ĠMajor": 7876,
      "Ġquarter": 7877,
      "Ġloading": 7878,
      "ĠFinally": 7879,
      "ĠKnife": 7880,
      "Ġdissolution": 7881,
      "Ġpanel": 7882,
      "Ġinjuries": 7883,
      "Ġsubjected": 7884,
      "Ġdarker": 7885,
      "Ġfitted": 7886,
      "ĠMechan": 7887,
      "ĠAgricult": 7888,
      "ĠKurth": 7889,
      "IRB": 7890,
      "Ġnucleation": 7891,
      "ĠRussian": 7892,
      "Ġflexibility": 7893,
      "Ġrevealed": 7894,
      "ĠâĪĴ": 7895,
      "Ġinitiatives": 7896,
      "Ġexplain": 7897,
      "Ġtube": 7898,
      "Ġthousand": 7899,
      "Ġtextures": 7900,
      "}}}{": 7901,
      "ĠGeorg": 7902,
      "Ġtownship": 7903,
      "Clipperton": 7904,
      "ĠCarpentry": 7905,
      "Ġmalleable": 7906,
      "Ġheartwood": 7907,
      "ĠErcol": 7908,
      "Ġrevenue": 7909,
      "ĠSociety": 7910,
      "ĠRetreat": 7911,
      "ĠExperimental": 7912,
      "CPF": 7913,
      "Ġlanguage": 7914,
      "Ġevapor": 7915,
      "Ġconflict": 7916,
      "Ġdagger": 7917,
      "Ġcontemporary": 7918,
      "Ġprominent": 7919,
      "Ġpearlite": 7920,
      "Ġvolcanic": 7921,
      "Ġperpendicular": 7922,
      "ĠTexas": 7923,
      "39": 7924,
      "54": 7925,
      "59": 7926,
      "62": 7927,
      "67": 7928,
      "Zn": 7929,
      "ean": 7930,
      "economic": 7931,
      "foot": 7932,
      "filled": 7933,
      "ja": 7934,
      "junction": 7935,
      "lt": 7936,
      "lings": 7937,
      "po": 7938,
      "sk": 7939,
      "tt": 7940,
      "ufficient": 7941,
      "vas": 7942,
      "vision": 7943,
      "wald": 7944,
      "Ġ_{": 7945,
      "Ġtax": 7946,
      "Ġarom": 7947,
      "inum": 7948,
      "held": 7949,
      "Ġca": 7950,
      "Ġspect": 7951,
      "ato": 7952,
      "athered": 7953,
      "Ġbill": 7954,
      "Ġbinder": 7955,
      "orous": 7956,
      "origin": 7957,
      "Ġpip": 7958,
      "Ġpits": 7959,
      "Ġdump": 7960,
      "Ġdoll": 7961,
      "elve": 7962,
      "Ġla": 7963,
      "Ġlamin": 7964,
      "Ġlakes": 7965,
      "Ġhal": 7966,
      "Ġhill": 7967,
      "Ġrender": 7968,
      "Ġrevers": 7969,
      "ĠTer": 7970,
      "ĠTimber": 7971,
      "etting": 7972,
      "Ġeag": 7973,
      "Ġeute": 7974,
      "state": 7975,
      "Ġconjunction": 7976,
      "Ġbeaut": 7977,
      "Ġgem": 7978,
      "Ġgauge": 7979,
      "Ġnin": 7980,
      "ĠTherm": 7981,
      "igan": 7982,
      "ĠSulf": 7983,
      "otive": 7984,
      "uled": 7985,
      "Ġstaff": 7986,
      "elligence": 7987,
      "Ġdend": 7988,
      "ĠMu": 7989,
      "ĠMy": 7990,
      "ĠMus": 7991,
      "ĠMuch": 7992,
      "teries": 7993,
      "ĠBP": 7994,
      "ĠBre": 7995,
      "ĠHold": 7996,
      "ĠFlu": 7997,
      "Ġmetallurg": 7998,
      "Ġmethane": 7999
    },
    "merges": [
      [
        "Ġ",
        "t"
      ],
      [
        "Ġ",
        "a"
      ],
      [
        "i",
        "n"
      ],
      [
        "h",
        "e"
      ],
      [
        "o",
        "n"
      ],
      [
        "r",
        "e"
      ],
      [
        "Ġt",
        "he"
      ],
      [
        "e",
        "r"
      ],
      [
        "Ġ",
        "o"
      ],
      [
        "Ġ",
        "c"
      ],
      [
        "Ġ",
        "s"
      ],
      [
        "a",
        "t"
      ],
      [
        "e",
        "s"
      ],
      [
        "n",
        "d"
      ],
      [
        "a",
        "l"
      ],
      [
        "e",
        "d"
      ],
      [
        "Ġ",
        "f"
      ],
      [
        "e",
        "n"
      ],
      [
        "Ġ",
        "m"
      ],
      [
        "Ġo",
        "f"
      ],
      [
        "Ġ",
        "w"
      ],
      [
        "i",
        "t"
      ],
      [
        "Ġ",
        "b"
      ],
      [
        "in",
        "g"
      ],
      [
        "o",
        "r"
      ],
      [
        "Ġ",
        "p"
      ],
      [
        "i",
        "s"
      ],
      [
        "Ġ",
        "in"
      ],
      [
        "a",
        "r"
      ],
      [
        "r",
        "o"
      ],
      [
        "a",
        "n"
      ],
      [
        "i",
        "on"
      ],
      [
        "Ġa",
        "nd"
      ],
      [
        "i",
        "c"
      ],
      [
        "Ġt",
        "o"
      ],
      [
        "Ġ",
        "d"
      ],
      [
        "a",
        "s"
      ],
      [
        "e",
        "l"
      ],
      [
        "o",
        "u"
      ],
      [
        "i",
        "l"
      ],
      [
        "c",
        "t"
      ],
      [
        "Ġ",
        "l"
      ],
      [
        "en",
        "t"
      ],
      [
        "Ġ",
        "h"
      ],
      [
        "u",
        "s"
      ],
      [
        "Ġ",
        "re"
      ],
      [
        "Ġ",
        "T"
      ],
      [
        "e",
        "t"
      ],
      [
        "o",
        "l"
      ],
      [
        "o",
        "m"
      ],
      [
        "Ġ",
        "is"
      ],
      [
        "u",
        "r"
      ],
      [
        "Ġ",
        "e"
      ],
      [
        "Ġt",
        "h"
      ],
      [
        "l",
        "y"
      ],
      [
        "s",
        "t"
      ],
      [
        "Ġc",
        "on"
      ],
      [
        "Ġ",
        "I"
      ],
      [
        "l",
        "e"
      ],
      [
        "r",
        "a"
      ],
      [
        "Ġf",
        "or"
      ],
      [
        "i",
        "d"
      ],
      [
        "at",
        "ion"
      ],
      [
        "Ġb",
        "e"
      ],
      [
        "c",
        "h"
      ],
      [
        "c",
        "e"
      ],
      [
        "Ġ",
        "g"
      ],
      [
        "i",
        "m"
      ],
      [
        "i",
        "r"
      ],
      [
        "Ġ",
        "n"
      ],
      [
        "Ġ",
        "A"
      ],
      [
        "ĠT",
        "he"
      ],
      [
        "t",
        "e"
      ],
      [
        "Ġa",
        "s"
      ],
      [
        "i",
        "v"
      ],
      [
        "Ġp",
        "ro"
      ],
      [
        "Ġ",
        "C"
      ],
      [
        "o",
        "w"
      ],
      [
        "i",
        "g"
      ],
      [
        "es",
        "t"
      ],
      [
        "Ġ",
        "S"
      ],
      [
        "a",
        "m"
      ],
      [
        "it",
        "h"
      ],
      [
        "Ġ",
        "("
      ],
      [
        "o",
        "t"
      ],
      [
        "u",
        "l"
      ],
      [
        "Ġs",
        "t"
      ],
      [
        "o",
        "d"
      ],
      [
        "Ġa",
        "re"
      ],
      [
        "Ġ",
        "us"
      ],
      [
        "ĠI",
        "n"
      ],
      [
        "Ġo",
        "r"
      ],
      [
        "l",
        "a"
      ],
      [
        "u",
        "t"
      ],
      [
        "Ġw",
        "ith"
      ],
      [
        "Ġ",
        "1"
      ],
      [
        "Ġ",
        "on"
      ],
      [
        "a",
        "d"
      ],
      [
        "Ġa",
        "l"
      ],
      [
        "el",
        "l"
      ],
      [
        "he",
        "r"
      ],
      [
        "er",
        "s"
      ],
      [
        "p",
        "e"
      ],
      [
        "ou",
        "t"
      ],
      [
        "Ġb",
        "y"
      ],
      [
        "Ġa",
        "b"
      ],
      [
        "o",
        "s"
      ],
      [
        "u",
        "re"
      ],
      [
        "o",
        "re"
      ],
      [
        "Ġd",
        "e"
      ],
      [
        "x",
        "t"
      ],
      [
        "Ġa",
        "n"
      ],
      [
        "ro",
        "m"
      ],
      [
        "n",
        "s"
      ],
      [
        "es",
        "s"
      ],
      [
        "v",
        "er"
      ],
      [
        "i",
        "f"
      ],
      [
        "Ġw",
        "as"
      ],
      [
        "v",
        "e"
      ],
      [
        "Ġth",
        "at"
      ],
      [
        "Ġ",
        "M"
      ],
      [
        "Ġm",
        "e"
      ],
      [
        "g",
        "e"
      ],
      [
        "d",
        "u"
      ],
      [
        "t",
        "er"
      ],
      [
        "Ġc",
        "om"
      ],
      [
        "u",
        "m"
      ],
      [
        "Ġ",
        "B"
      ],
      [
        "p",
        "er"
      ],
      [
        "Ġ",
        "it"
      ],
      [
        "Ġs",
        "u"
      ],
      [
        "Ġf",
        "rom"
      ],
      [
        "i",
        "al"
      ],
      [
        "i",
        "es"
      ],
      [
        "a",
        "b"
      ],
      [
        "q",
        "u"
      ],
      [
        "is",
        "t"
      ],
      [
        "al",
        "l"
      ],
      [
        "Ġw",
        "h"
      ],
      [
        "u",
        "n"
      ],
      [
        "o",
        "p"
      ],
      [
        "m",
        "ent"
      ],
      [
        "Q",
        "u"
      ],
      [
        "Ġm",
        "a"
      ],
      [
        "w",
        "er"
      ],
      [
        "Ġab",
        "out"
      ],
      [
        "est",
        "ion"
      ],
      [
        "e",
        "re"
      ],
      [
        "t",
        "h"
      ],
      [
        "at",
        "e"
      ],
      [
        "A",
        "ns"
      ],
      [
        "Qu",
        "estion"
      ],
      [
        "Ans",
        "wer"
      ],
      [
        "Ġ",
        "P"
      ],
      [
        "ct",
        "ion"
      ],
      [
        "at",
        "er"
      ],
      [
        "il",
        "l"
      ],
      [
        "Ġa",
        "t"
      ],
      [
        "ic",
        "al"
      ],
      [
        "Ġ",
        "H"
      ],
      [
        "te",
        "xt"
      ],
      [
        "s",
        "e"
      ],
      [
        "Ġ",
        "F"
      ],
      [
        "a",
        "nd"
      ],
      [
        "Ġ",
        "E"
      ],
      [
        "Ġcon",
        "text"
      ],
      [
        "ir",
        "on"
      ],
      [
        "re",
        "s"
      ],
      [
        "a",
        "in"
      ],
      [
        "Ġt",
        "ell"
      ],
      [
        "Ġe",
        "x"
      ],
      [
        "at",
        "ed"
      ],
      [
        "Ġ",
        "W"
      ],
      [
        "a",
        "c"
      ],
      [
        "it",
        "y"
      ],
      [
        "an",
        "t"
      ],
      [
        "0",
        "0"
      ],
      [
        "ic",
        "h"
      ],
      [
        "Ġ",
        "v"
      ],
      [
        "Ġus",
        "ed"
      ],
      [
        "Ġm",
        "et"
      ],
      [
        "Ġ",
        "k"
      ],
      [
        "ig",
        "h"
      ],
      [
        "ro",
        "u"
      ],
      [
        "Ġc",
        "h"
      ],
      [
        "as",
        "t"
      ],
      [
        "o",
        "c"
      ],
      [
        "Ġs",
        "h"
      ],
      [
        "o",
        "od"
      ],
      [
        "Ġ",
        "2"
      ],
      [
        "r",
        "y"
      ],
      [
        "Ġ",
        "D"
      ],
      [
        "Ġ",
        "r"
      ],
      [
        "Ġc",
        "an"
      ],
      [
        "Ġwh",
        "ich"
      ],
      [
        "or",
        "t"
      ],
      [
        "Ġm",
        "in"
      ],
      [
        "Ġs",
        "e"
      ],
      [
        "p",
        "p"
      ],
      [
        "Ġpro",
        "du"
      ],
      [
        "us",
        "t"
      ],
      [
        "l",
        "d"
      ],
      [
        "it",
        "e"
      ],
      [
        "c",
        "ess"
      ],
      [
        "iv",
        "e"
      ],
      [
        "ar",
        "t"
      ],
      [
        "i",
        "re"
      ],
      [
        "Ġh",
        "a"
      ],
      [
        "Ġ",
        "iron"
      ],
      [
        "g",
        "h"
      ],
      [
        "Ġ",
        "N"
      ],
      [
        "Ġin",
        "c"
      ],
      [
        "Ġ",
        "he"
      ],
      [
        "Ġ",
        "R"
      ],
      [
        "ar",
        "d"
      ],
      [
        "u",
        "d"
      ],
      [
        "n",
        "t"
      ],
      [
        "t",
        "her"
      ],
      [
        "e",
        "ct"
      ],
      [
        "e",
        "m"
      ],
      [
        "a",
        "y"
      ],
      [
        "Ġc",
        "o"
      ],
      [
        "i",
        "b"
      ],
      [
        "i",
        "z"
      ],
      [
        "in",
        "e"
      ],
      [
        "o",
        "g"
      ],
      [
        "Ġcom",
        "p"
      ],
      [
        "Ġ",
        "G"
      ],
      [
        "Ġw",
        "ere"
      ],
      [
        "r",
        "u"
      ],
      [
        "id",
        "e"
      ],
      [
        "i",
        "p"
      ],
      [
        "Ġ",
        "L"
      ],
      [
        "Ġ",
        "en"
      ],
      [
        "Ġl",
        "e"
      ],
      [
        "Ġcon",
        "t"
      ],
      [
        "Ġha",
        "ve"
      ],
      [
        "a",
        "p"
      ],
      [
        "i",
        "a"
      ],
      [
        "Ġ",
        "O"
      ],
      [
        "s",
        "o"
      ],
      [
        "t",
        "ing"
      ],
      [
        "Ġ",
        "\""
      ],
      [
        "al",
        "ly"
      ],
      [
        "Ġ1",
        "9"
      ],
      [
        "Ġre",
        "s"
      ],
      [
        "ur",
        "n"
      ],
      [
        "k",
        "e"
      ],
      [
        "ou",
        "s"
      ],
      [
        "it",
        "ion"
      ],
      [
        "a",
        "ct"
      ],
      [
        "Ġ",
        "u"
      ],
      [
        "ou",
        "r"
      ],
      [
        "â",
        "Ģ"
      ],
      [
        "Ġw",
        "he"
      ],
      [
        "a",
        "ce"
      ],
      [
        "Ġs",
        "m"
      ],
      [
        "Ġn",
        "e"
      ],
      [
        "re",
        "d"
      ],
      [
        "Ġc",
        "ar"
      ],
      [
        "Ġin",
        "t"
      ],
      [
        "Ġfor",
        "m"
      ],
      [
        "k",
        "ing"
      ],
      [
        "Ġal",
        "so"
      ],
      [
        "on",
        "g"
      ],
      [
        "c",
        "o"
      ],
      [
        "Ġn",
        "ot"
      ],
      [
        "Ġsu",
        "ch"
      ],
      [
        "ation",
        "s"
      ],
      [
        "im",
        "p"
      ],
      [
        "om",
        "e"
      ],
      [
        "ab",
        "le"
      ],
      [
        "Ġpro",
        "cess"
      ],
      [
        "Ġa",
        "r"
      ],
      [
        "Ġ",
        "U"
      ],
      [
        "l",
        "o"
      ],
      [
        "c",
        "ed"
      ],
      [
        "Ġw",
        "or"
      ],
      [
        "Ġm",
        "an"
      ],
      [
        "f",
        "f"
      ],
      [
        "o",
        "st"
      ],
      [
        "Ġa",
        "d"
      ],
      [
        "Ġ",
        "ro"
      ],
      [
        "k",
        "s"
      ],
      [
        "Ġo",
        "ther"
      ],
      [
        "'",
        "s"
      ],
      [
        "ĠT",
        "h"
      ],
      [
        "ul",
        "t"
      ],
      [
        "on",
        "e"
      ],
      [
        "el",
        "y"
      ],
      [
        "pe",
        "c"
      ],
      [
        "ore",
        "st"
      ],
      [
        "i",
        "e"
      ],
      [
        "Ġp",
        "l"
      ],
      [
        "igh",
        "t"
      ],
      [
        "b",
        "er"
      ],
      [
        "r",
        "an"
      ],
      [
        "l",
        "ow"
      ],
      [
        "Ġcom",
        "m"
      ],
      [
        "a",
        "v"
      ],
      [
        "ar",
        "y"
      ],
      [
        "ou",
        "nd"
      ],
      [
        "al",
        "s"
      ],
      [
        "Ġh",
        "as"
      ],
      [
        "Ġs",
        "te"
      ],
      [
        "ig",
        "n"
      ],
      [
        "ater",
        "ial"
      ],
      [
        "Ġa",
        "c"
      ],
      [
        "Ġit",
        "s"
      ],
      [
        "Ġm",
        "ore"
      ],
      [
        "as",
        "s"
      ],
      [
        "Ġbe",
        "en"
      ],
      [
        "am",
        "p"
      ],
      [
        "Ġm",
        "aterial"
      ],
      [
        "Ġ",
        "imp"
      ],
      [
        "r",
        "ic"
      ],
      [
        "a",
        "ge"
      ],
      [
        "Ġinc",
        "l"
      ],
      [
        "en",
        "s"
      ],
      [
        "Ġb",
        "ut"
      ],
      [
        "i",
        "an"
      ],
      [
        "v",
        "el"
      ],
      [
        "Ġint",
        "o"
      ],
      [
        "f",
        "t"
      ],
      [
        "Ġth",
        "is"
      ],
      [
        "re",
        "e"
      ],
      [
        "Ġp",
        "art"
      ],
      [
        ")",
        ","
      ],
      [
        "Ġf",
        "urn"
      ],
      [
        "Ġp",
        "er"
      ],
      [
        "Ġus",
        "e"
      ],
      [
        "at",
        "es"
      ],
      [
        "Ġt",
        "e"
      ],
      [
        "Ġk",
        "n"
      ],
      [
        "Ġ",
        "un"
      ],
      [
        "Ġp",
        "re"
      ],
      [
        "ol",
        "d"
      ],
      [
        "or",
        "d"
      ],
      [
        "Ġs",
        "o"
      ],
      [
        "c",
        "es"
      ],
      [
        "la",
        "y"
      ],
      [
        "Ġ",
        "y"
      ],
      [
        "u",
        "e"
      ],
      [
        "rou",
        "gh"
      ],
      [
        "ol",
        "og"
      ],
      [
        "ow",
        "n"
      ],
      [
        "Ġw",
        "ood"
      ],
      [
        "at",
        "ure"
      ],
      [
        "ĠI",
        "t"
      ],
      [
        "Ġincl",
        "ud"
      ],
      [
        "b",
        "on"
      ],
      [
        "Ġthe",
        "ir"
      ],
      [
        "is",
        "h"
      ],
      [
        "ou",
        "ld"
      ],
      [
        "l",
        "es"
      ],
      [
        "Ġs",
        "p"
      ],
      [
        "in",
        "t"
      ],
      [
        "e",
        "ar"
      ],
      [
        "Ġin",
        "d"
      ],
      [
        "Ġs",
        "ur"
      ],
      [
        "Ġma",
        "y"
      ],
      [
        "Ġt",
        "ra"
      ],
      [
        "Ġd",
        "is"
      ],
      [
        "res",
        "s"
      ],
      [
        "rou",
        "nd"
      ],
      [
        ")",
        "."
      ],
      [
        "Ġth",
        "an"
      ],
      [
        "Ġ",
        "K"
      ],
      [
        "an",
        "ce"
      ],
      [
        "at",
        "ing"
      ],
      [
        "ĠTh",
        "is"
      ],
      [
        "Ġt",
        "y"
      ],
      [
        "Ġch",
        "ar"
      ],
      [
        "Ġs",
        "pec"
      ],
      [
        "Ġ",
        "ra"
      ],
      [
        "âĢ",
        "ĵ"
      ],
      [
        "ou",
        "nt"
      ],
      [
        "Ġ",
        "el"
      ],
      [
        "a",
        "g"
      ],
      [
        "t",
        "en"
      ],
      [
        "m",
        "er"
      ],
      [
        "p",
        "t"
      ],
      [
        "p",
        "os"
      ],
      [
        "Ġste",
        "el"
      ],
      [
        "or",
        "m"
      ],
      [
        "il",
        "e"
      ],
      [
        "Ġt",
        "im"
      ],
      [
        "Ġf",
        "orest"
      ],
      [
        "i",
        "ed"
      ],
      [
        "Ġto",
        "ol"
      ],
      [
        "ĠC",
        "h"
      ],
      [
        "d",
        "ition"
      ],
      [
        "a",
        "k"
      ],
      [
        "Ġw",
        "ater"
      ],
      [
        "ad",
        "e"
      ],
      [
        "Ġ",
        "J"
      ],
      [
        "ro",
        "s"
      ],
      [
        "Ġa",
        "pp"
      ],
      [
        "Ġre",
        "m"
      ],
      [
        "Ġd",
        "es"
      ],
      [
        "Ġl",
        "ar"
      ],
      [
        "Ġ2",
        "0"
      ],
      [
        "Ġh",
        "igh"
      ],
      [
        "as",
        "e"
      ],
      [
        "if",
        "ic"
      ],
      [
        "he",
        "d"
      ],
      [
        "p",
        "h"
      ],
      [
        "Ġo",
        "x"
      ],
      [
        "Ġc",
        "ent"
      ],
      [
        "if",
        "f"
      ],
      [
        "am",
        "e"
      ],
      [
        "Ġbe",
        "c"
      ],
      [
        "Ġcar",
        "bon"
      ],
      [
        "Ġc",
        "l"
      ],
      [
        "Ġcon",
        "s"
      ],
      [
        "Ġthe",
        "y"
      ],
      [
        "ur",
        "ing"
      ],
      [
        "a",
        "us"
      ],
      [
        "in",
        "d"
      ],
      [
        "Ġon",
        "e"
      ],
      [
        "ent",
        "s"
      ],
      [
        "Ġf",
        "ir"
      ],
      [
        "ro",
        "w"
      ],
      [
        "Ġm",
        "ost"
      ],
      [
        "v",
        "ed"
      ],
      [
        "ch",
        "n"
      ],
      [
        "i",
        "um"
      ],
      [
        "ra",
        "ct"
      ],
      [
        "ar",
        "ly"
      ],
      [
        "en",
        "ce"
      ],
      [
        "Ġf",
        "l"
      ],
      [
        "ion",
        "s"
      ],
      [
        "co",
        "al"
      ],
      [
        "Ġmet",
        "al"
      ],
      [
        "Ġ",
        "qu"
      ],
      [
        "Ġf",
        "ound"
      ],
      [
        "ou",
        "gh"
      ],
      [
        "Ġt",
        "w"
      ],
      [
        "nd",
        "er"
      ],
      [
        "c",
        "on"
      ],
      [
        "e",
        "p"
      ],
      [
        "an",
        "y"
      ],
      [
        "Ġe",
        "v"
      ],
      [
        "Ġa",
        "g"
      ],
      [
        "Ġs",
        "ome"
      ],
      [
        "a",
        "il"
      ],
      [
        "Ġd",
        "iff"
      ],
      [
        "Ġo",
        "ut"
      ],
      [
        "Ġt",
        "re"
      ],
      [
        "u",
        "b"
      ],
      [
        "Ġre",
        "g"
      ],
      [
        "ical",
        "ly"
      ],
      [
        "or",
        "y"
      ],
      [
        "i",
        "qu"
      ],
      [
        "Ġm",
        "ade"
      ],
      [
        "a",
        "re"
      ],
      [
        "w",
        "e"
      ],
      [
        "on",
        "s"
      ],
      [
        "Ġre",
        "du"
      ],
      [
        "Ġg",
        "en"
      ],
      [
        "Ġ",
        "3"
      ],
      [
        "it",
        "ies"
      ],
      [
        "Ġmin",
        "ing"
      ],
      [
        "Ġof",
        "ten"
      ],
      [
        "Ġu",
        "p"
      ],
      [
        "er",
        "n"
      ],
      [
        "il",
        "d"
      ],
      [
        "Ġp",
        "r"
      ],
      [
        "Ġte",
        "chn"
      ],
      [
        "er",
        "m"
      ],
      [
        "a",
        "ch"
      ],
      [
        "or",
        "s"
      ],
      [
        "ic",
        "k"
      ],
      [
        "Ġe",
        "xt"
      ],
      [
        "Ġre",
        "f"
      ],
      [
        "Ġt",
        "em"
      ],
      [
        "Ġwhe",
        "n"
      ],
      [
        "Ġs",
        "c"
      ],
      [
        "ĠS",
        "t"
      ],
      [
        "Ġb",
        "et"
      ],
      [
        "ment",
        "s"
      ],
      [
        "Ġfurn",
        "ace"
      ],
      [
        "Ġg",
        "ra"
      ],
      [
        "ru",
        "ct"
      ],
      [
        "vel",
        "op"
      ],
      [
        "y",
        "s"
      ],
      [
        "i",
        "ent"
      ],
      [
        "op",
        "per"
      ],
      [
        "Ġc",
        "ol"
      ],
      [
        "Ġo",
        "ver"
      ],
      [
        "Ġ",
        "j"
      ],
      [
        "ar",
        "i"
      ],
      [
        "Ġwhe",
        "re"
      ],
      [
        "in",
        "ing"
      ],
      [
        "it",
        "ed"
      ],
      [
        "Ġ1",
        "8"
      ],
      [
        "c",
        "k"
      ],
      [
        "an",
        "g"
      ],
      [
        "u",
        "ally"
      ],
      [
        "Ġex",
        "p"
      ],
      [
        "Ġre",
        "p"
      ],
      [
        "ver",
        "y"
      ],
      [
        "l",
        "ic"
      ],
      [
        "Ġe",
        "ff"
      ],
      [
        "Ġc",
        "lay"
      ],
      [
        "Ġh",
        "ad"
      ],
      [
        "h",
        "od"
      ],
      [
        "Ġth",
        "rough"
      ],
      [
        "r",
        "on"
      ],
      [
        "it",
        "s"
      ],
      [
        "ur",
        "y"
      ],
      [
        "per",
        "ature"
      ],
      [
        "os",
        "e"
      ],
      [
        "Ġsm",
        "el"
      ],
      [
        "Ġu",
        "nder"
      ],
      [
        "Ġde",
        "velop"
      ],
      [
        "n",
        "g"
      ],
      [
        "ac",
        "k"
      ],
      [
        "Ġ",
        "V"
      ],
      [
        "Ġwor",
        "k"
      ],
      [
        "Ġty",
        "p"
      ],
      [
        "Ġtw",
        "o"
      ],
      [
        "Ġo",
        "per"
      ],
      [
        "ar",
        "k"
      ],
      [
        "f",
        "ter"
      ],
      [
        "00",
        "0"
      ],
      [
        "c",
        "c"
      ],
      [
        "Ġw",
        "e"
      ],
      [
        "ic",
        "e"
      ],
      [
        "ing",
        "s"
      ],
      [
        "ur",
        "al"
      ],
      [
        "Ġb",
        "u"
      ],
      [
        "as",
        "ed"
      ],
      [
        "il",
        "ity"
      ],
      [
        "Ġprodu",
        "ction"
      ],
      [
        "e",
        "ver"
      ],
      [
        "Ġre",
        "c"
      ],
      [
        "Ġthe",
        "se"
      ],
      [
        "Ġsm",
        "all"
      ],
      [
        "Ġf",
        "e"
      ],
      [
        "ter",
        "n"
      ],
      [
        "Ġa",
        "ct"
      ],
      [
        "Ġl",
        "oc"
      ],
      [
        "g",
        "en"
      ],
      [
        "d",
        "e"
      ],
      [
        "r",
        "it"
      ],
      [
        "Ġcomm",
        "on"
      ],
      [
        "g",
        "y"
      ],
      [
        "ĠW",
        "h"
      ],
      [
        "Ġb",
        "la"
      ],
      [
        "ot",
        "h"
      ],
      [
        "Ġde",
        "c"
      ],
      [
        "Ġtem",
        "perature"
      ],
      [
        "Ġa",
        "m"
      ],
      [
        "Ġchar",
        "coal"
      ],
      [
        "o",
        "ve"
      ],
      [
        "Ġy",
        "ear"
      ],
      [
        "g",
        "an"
      ],
      [
        "Ġs",
        "y"
      ],
      [
        "a",
        "w"
      ],
      [
        "we",
        "en"
      ],
      [
        "Ġo",
        "b"
      ],
      [
        "Ġc",
        "all"
      ],
      [
        "Ġpl",
        "ant"
      ],
      [
        "n",
        "e"
      ],
      [
        "ust",
        "r"
      ],
      [
        "Ġfir",
        "st"
      ],
      [
        "Ġb",
        "l"
      ],
      [
        "ul",
        "ar"
      ],
      [
        "Ġc",
        "or"
      ],
      [
        "Ġmet",
        "hod"
      ],
      [
        "t",
        "ed"
      ],
      [
        "p",
        "s"
      ],
      [
        "f",
        "orm"
      ],
      [
        "Ġl",
        "ow"
      ],
      [
        "Ġsh",
        "a"
      ],
      [
        "ĠA",
        "l"
      ],
      [
        "ran",
        "s"
      ],
      [
        "Ġbet",
        "ween"
      ],
      [
        "Ġthe",
        "re"
      ],
      [
        "Ġsu",
        "b"
      ],
      [
        "Ġcon",
        "c"
      ],
      [
        "Ġinc",
        "re"
      ],
      [
        "Ġle",
        "ad"
      ],
      [
        "Ġp",
        "ol"
      ],
      [
        "Ġtool",
        "s"
      ],
      [
        "Ġkn",
        "own"
      ],
      [
        "l",
        "i"
      ],
      [
        "Ġc",
[...]
